{
    "30004": "\r",
    "29991": "!",
    "6824": "!!",
    "21004": "!!!",
    "3850": "!\"",
    "24862": "!\");",
    "20714": "!'",
    "13311": "!(",
    "28457": "!(\"",
    "14366": "!)",
    "18565": "!,",
    "6172": "!--",
    "21520": "!.",
    "25064": "!...",
    "14708": "!/",
    "19216": "!=",
    "21298": "![",
    "9903": "!\\",
    "27896": "!}",
    "8530": "!\u201d",
    "29908": "\"",
    "19451": "\"\r",
    "15945": "\"\"",
    "1159": "\")",
    "5783": "\"))",
    "8983": "\"));",
    "4968": "\"),",
    "2564": "\").",
    "1496": "\");",
    "18584": "\");\r",
    "13531": "\")]",
    "20933": "\")`",
    "17969": "\"+",
    "613": "\",",
    "15231": "\",\r",
    "3284": "\",\"",
    "1642": "\".",
    "22681": "\".$",
    "23901": "\"/",
    "4681": "\"/>",
    "1115": "\":",
    "4710": "\":\"",
    "28819": "\":{\"",
    "1769": "\";",
    "25982": "\";\r",
    "19482": "\"=>",
    "1013": "\">",
    "10175": "\">\r",
    "3254": "\"><",
    "5319": "\"></",
    "8652": "\"?",
    "18943": "\"?>",
    "26732": "\"\\",
    "3108": "\"]",
    "20068": "\"])",
    "12436": "\"],",
    "16862": "\"].",
    "10370": "\"];",
    "6937": "\"`",
    "9092": "\"}",
    "10758": "\"},",
    "29937": "#",
    "2277": "##",
    "4136": "####",
    "7346": "########",
    "13383": "################",
    "6552": "#,",
    "26660": "#{",
    "29938": "$",
    "3997": "$$",
    "12330": "$(",
    "10931": "$)",
    "25942": "$),",
    "18724": "$).",
    "1628": "$,",
    "4388": "$-",
    "1504": "$.",
    "21063": "$:",
    "22073": "$;",
    "15485": "$?",
    "4535": "$\\",
    "14630": "$_",
    "5303": "${",
    "17133": "$}",
    "24594": "$};",
    "25069": "$}}%",
    "29995": "%",
    "23577": "%\"",
    "7686": "%%",
    "16270": "%%%%",
    "28198": "%%%%%%%%",
    "29001": "%'",
    "10997": "%)",
    "28003": "%).",
    "13667": "%,",
    "15543": "%.",
    "8874": "%;",
    "16737": "%;\r",
    "12222": "%=",
    "29987": "&",
    "9137": "&#",
    "12774": "&&",
    "20644": "&=",
    "11035": "&\\",
    "29915": "'",
    "11838": "'\"",
    "13090": "'$",
    "4907": "''",
    "12008": "'''",
    "12215": "'(",
    "1495": "')",
    "8785": "'))",
    "14749": "'));",
    "5477": "'),",
    "22423": "')->",
    "2824": "').",
    "29374": "'):",
    "2157": "');",
    "17822": "');\r",
    "29861": "')[",
    "21434": "')`",
    "18717": "'+",
    "742": "',",
    "23592": "',\r",
    "3788": "','",
    "28560": "'-",
    "4286": "'.",
    "22686": "'.$",
    "2396": "':",
    "22099": "':'",
    "2670": "';",
    "16826": "'=>",
    "11041": "'>",
    "12764": "'\\",
    "2033": "']",
    "11287": "'])",
    "25901": "']))",
    "17077": "']);",
    "7464": "'],",
    "13359": "'].",
    "8219": "'];",
    "16215": "']['",
    "15972": "'_",
    "11120": "'`",
    "10827": "'}",
    "16675": "'},",
    "24264": "'}[",
    "29898": "(",
    "11864": "(!",
    "703": "(\"",
    "14822": "(\"#",
    "11702": "(\"%",
    "28165": "(\",",
    "17350": "(\".",
    "11974": "(\"/",
    "28945": "(\"<",
    "29475": "(\"@",
    "14182": "(\"\\",
    "1566": "($",
    "26237": "($(",
    "11081": "($_",
    "29414": "(%",
    "6243": "(&",
    "877": "('",
    "14237": "('#",
    "29317": "(',",
    "12839": "('.",
    "11219": "('/",
    "28909": "('\\",
    "3552": "((",
    "14885": "(()",
    "580": "()",
    "26471": "()\r",
    "25318": "()\"",
    "3101": "())",
    "22130": "()))",
    "20465": "()));",
    "25739": "()),",
    "16655": "()).",
    "3310": "());",
    "3285": "(),",
    "13539": "()->",
    "2141": "().",
    "7295": "():",
    "890": "();",
    "14078": "();\r",
    "22891": "();`",
    "2555": "()`",
    "16996": "()`,",
    "13595": "()`.",
    "23098": "()`](",
    "4923": "(){",
    "28296": "()}",
    "10456": "(*",
    "22798": "(*)",
    "6278": "(-",
    "11891": "(.",
    "28104": "(.*",
    "19327": "(...",
    "29077": "(...)",
    "18854": "(/",
    "8137": "(:",
    "10780": "(?",
    "10394": "(@",
    "14699": "(@\"",
    "4197": "([",
    "18959": "(['",
    "1194": "(\\",
    "7373": "(_",
    "22168": "(__",
    "16787": "(`",
    "3319": "({",
    "13670": "({\\",
    "27204": "(|",
    "29897": ")",
    "8443": ")\r",
    "20198": ")!",
    "5513": ")\"",
    "25760": ")\")",
    "19123": ")\",",
    "1262": ")$",
    "17085": ")$$",
    "5767": ")$,",
    "26725": ")$-",
    "4935": ")$.",
    "26927": ")&",
    "16029": ")'",
    "5033": ")(",
    "876": "))",
    "23846": "))$",
    "4961": ")))",
    "13697": "))))",
    "17884": ")));",
    "8243": ")),",
    "8106": ")).",
    "22164": ")):",
    "2483": "));",
    "28986": "))\\",
    "28166": "))]",
    "25337": "))`",
    "18840": ")){",
    "11877": ")*",
    "7240": ")+",
    "20843": ")+\\",
    "511": "),",
    "21336": "),(",
    "20481": "),\\",
    "6817": ")-",
    "17389": ")--",
    "25062": ")--(",
    "19969": ")->",
    "23019": ")-\\",
    "467": ").",
    "20149": ")..",
    "6802": ")/",
    "1125": "):",
    "416": ");",
    "6075": ");\r",
    "12771": ");`",
    "3892": ")=",
    "7950": ")=\\",
    "15410": ")>",
    "6877": ")?",
    "9601": ")[",
    "2144": ")\\",
    "27779": ")\\)",
    "24224": ")\\,",
    "18775": ")\\\\",
    "4638": ")]",
    "23192": ")](",
    "27077": ")];",
    "4887": ")^",
    "8940": ")^{",
    "21604": ")^{-",
    "21422": ")^{\\",
    "20344": ")_",
    "20439": ")_{",
    "3569": ")`",
    "20362": ")`,",
    "14466": ")`.",
    "2597": "){",
    "21964": "){\\",
    "10531": ")|",
    "2915": ")}",
    "15604": ")}$",
    "22302": ")}(",
    "26972": ")})",
    "19230": ")},",
    "29512": ")}.",
    "11383": ")}\\",
    "10172": ")}{",
    "19978": ")}{\\",
    "21345": ")}}",
    "25756": ")\u00bb.",
    "29930": "*",
    "20605": "*\"",
    "29394": "*$",
    "16395": "*(",
    "7528": "*)",
    "1068": "**",
    "17435": "***",
    "2328": "****",
    "4189": "********",
    "7775": "****************",
    "15966": "*,",
    "10521": "*.",
    "3877": "*/",
    "17710": "*\\",
    "20463": "*`",
    "19740": "*{",
    "4044": "*}",
    "29974": "+",
    "13578": "+\"",
    "24035": "+$",
    "23097": "+'",
    "17108": "+(",
    "28135": "+)",
    "1817": "++",
    "4862": "++)",
    "16284": "++){",
    "10024": "++,",
    "9107": "++;",
    "23661": "+=",
    "3124": "+\\",
    "29892": ",",
    "11167": ",\r",
    "1699": ",\"",
    "8209": ",$",
    "24163": ",%",
    "5501": ",'",
    "22657": ",(",
    "12985": ",,",
    "6653": ",-",
    "7839": ",--",
    "7671": ",.",
    "27062": ",...,",
    "17094": ",[",
    "2053": ",\\",
    "24308": ",\\,",
    "26073": ",]",
    "16006": ",\u200e",
    "18887": ",\u2019",
    "3995": ",\u201d",
    "29899": "-",
    "18039": "-$",
    "19222": "-%",
    "17722": "-(",
    "15805": "-)",
    "11793": "-+",
    "15767": "-,",
    "489": "--",
    "13869": "--\"",
    "13097": "--+",
    "5634": "---",
    "12918": "---+",
    "807": "----",
    "27385": "----+",
    "23648": "-----",
    "22158": "------",
    "25809": "------+",
    "26589": "-------",
    "1378": "--------",
    "28490": "---------+",
    "28400": "----------",
    "9072": "------------",
    "2683": "----------------",
    "15110": "-->",
    "28753": "-.",
    "976": "->",
    "26244": "->_",
    "20667": "->{",
    "2612": "-\\",
    "27154": "-}",
    "29889": ".",
    "22993": ".\r",
    "1213": ".\"",
    "23157": ".\")",
    "18327": ".\");",
    "19602": ".\",",
    "7449": ".$",
    "19470": ".$$",
    "6169": ".'",
    "14030": ".(",
    "1846": ".)",
    "9774": ".),",
    "6250": ".).",
    "9575": ".):",
    "5575": ".*",
    "26355": ".*;",
    "1696": ".,",
    "9229": ".-",
    "7703": ".--",
    "636": "..",
    "856": "...",
    "17794": "...\"",
    "11410": "...)",
    "16361": "...,",
    "3045": "....",
    "18598": ".....",
    "11296": "........",
    "25285": "................",
    "17361": "...]",
    "6995": "../",
    "21546": "../../",
    "6904": "./",
    "4898": ".:",
    "26847": ".:\u200a",
    "8670": ".;",
    "19423": ".<",
    "21106": ".</",
    "25019": ".=",
    "21240": ".@",
    "7226": ".[",
    "7790": ".\\",
    "5586": ".]",
    "24630": ".](",
    "3032": "._",
    "17255": ".__",
    "17580": ".`",
    "5003": ".}",
    "13217": ".~",
    "8770": ".~\\",
    "29719": ".\u00ab",
    "16039": ".\u00bb",
    "22416": ".\u2014",
    "16412": ".\u2019",
    "14613": ".\u201c",
    "3178": ".\u201d",
    "29914": "/",
    "12975": "/\"",
    "8484": "/#",
    "13346": "/$",
    "22584": "/%",
    "22208": "/'",
    "14571": "/(",
    "4551": "/)",
    "23201": "/),",
    "12495": "/).",
    "5515": "/*",
    "7918": "/**",
    "19637": "/,",
    "24028": "/-",
    "6294": "/.",
    "458": "//",
    "6658": "///",
    "6165": "////",
    "10797": "////////",
    "19511": "////////////////",
    "24676": "/:",
    "3779": "/>",
    "13401": "/?",
    "29368": "/@",
    "7998": "/\\",
    "19891": "/_",
    "16527": "/`",
    "19248": "/{",
    "24629": "/~",
    "29900": "0",
    "29896": "1",
    "29906": "2",
    "29941": "3",
    "29946": "4",
    "29945": "5",
    "29953": "6",
    "29955": "7",
    "29947": "8",
    "29929": "9",
    "29901": ":",
    "6160": ":\"",
    "21968": ":#",
    "17178": ":$",
    "16664": ":%",
    "11283": ":'",
    "5919": ":(",
    "20925": ":)",
    "13018": ":-",
    "20296": ":--",
    "8419": ":/",
    "597": "://",
    "1057": "::",
    "9361": ":=",
    "26984": ":@",
    "8593": ":@\"",
    "10834": ":[",
    "3583": ":\\",
    "22298": ":\\\\",
    "17531": ":]",
    "18078": ":`",
    "26254": ":{",
    "3854": ":}",
    "4291": ":\u2009",
    "29936": ";",
    "2104": ";\r",
    "15458": ";\"",
    "12334": ";\">",
    "25359": ";&",
    "7859": ";;",
    "19603": ";;;;",
    "14814": ";</",
    "10436": ";\\",
    "10367": ";`",
    "13951": ";}",
    "29966": "<",
    "14136": "<!--",
    "26292": "<%=",
    "26717": "<'",
    "16406": "<-",
    "829": "</",
    "2": "</s>",
    "3": "<0x00>",
    "4": "<0x01>",
    "5": "<0x02>",
    "6": "<0x03>",
    "7": "<0x04>",
    "8": "<0x05>",
    "9": "<0x06>",
    "10": "<0x07>",
    "11": "<0x08>",
    "12": "<0x09>",
    "13": "<0x0A>",
    "14": "<0x0B>",
    "15": "<0x0C>",
    "16": "<0x0D>",
    "17": "<0x0E>",
    "18": "<0x0F>",
    "19": "<0x10>",
    "20": "<0x11>",
    "21": "<0x12>",
    "22": "<0x13>",
    "23": "<0x14>",
    "24": "<0x15>",
    "25": "<0x16>",
    "26": "<0x17>",
    "27": "<0x18>",
    "28": "<0x19>",
    "29": "<0x1A>",
    "30": "<0x1B>",
    "31": "<0x1C>",
    "32": "<0x1D>",
    "33": "<0x1E>",
    "34": "<0x1F>",
    "35": "<0x20>",
    "36": "<0x21>",
    "37": "<0x22>",
    "38": "<0x23>",
    "39": "<0x24>",
    "40": "<0x25>",
    "41": "<0x26>",
    "42": "<0x27>",
    "43": "<0x28>",
    "44": "<0x29>",
    "45": "<0x2A>",
    "46": "<0x2B>",
    "47": "<0x2C>",
    "48": "<0x2D>",
    "49": "<0x2E>",
    "50": "<0x2F>",
    "51": "<0x30>",
    "52": "<0x31>",
    "53": "<0x32>",
    "54": "<0x33>",
    "55": "<0x34>",
    "56": "<0x35>",
    "57": "<0x36>",
    "58": "<0x37>",
    "59": "<0x38>",
    "60": "<0x39>",
    "61": "<0x3A>",
    "62": "<0x3B>",
    "63": "<0x3C>",
    "64": "<0x3D>",
    "65": "<0x3E>",
    "66": "<0x3F>",
    "67": "<0x40>",
    "68": "<0x41>",
    "69": "<0x42>",
    "70": "<0x43>",
    "71": "<0x44>",
    "72": "<0x45>",
    "73": "<0x46>",
    "74": "<0x47>",
    "75": "<0x48>",
    "76": "<0x49>",
    "77": "<0x4A>",
    "78": "<0x4B>",
    "79": "<0x4C>",
    "80": "<0x4D>",
    "81": "<0x4E>",
    "82": "<0x4F>",
    "83": "<0x50>",
    "84": "<0x51>",
    "85": "<0x52>",
    "86": "<0x53>",
    "87": "<0x54>",
    "88": "<0x55>",
    "89": "<0x56>",
    "90": "<0x57>",
    "91": "<0x58>",
    "92": "<0x59>",
    "93": "<0x5A>",
    "94": "<0x5B>",
    "95": "<0x5C>",
    "96": "<0x5D>",
    "97": "<0x5E>",
    "98": "<0x5F>",
    "99": "<0x60>",
    "100": "<0x61>",
    "101": "<0x62>",
    "102": "<0x63>",
    "103": "<0x64>",
    "104": "<0x65>",
    "105": "<0x66>",
    "106": "<0x67>",
    "107": "<0x68>",
    "108": "<0x69>",
    "109": "<0x6A>",
    "110": "<0x6B>",
    "111": "<0x6C>",
    "112": "<0x6D>",
    "113": "<0x6E>",
    "114": "<0x6F>",
    "115": "<0x70>",
    "116": "<0x71>",
    "117": "<0x72>",
    "118": "<0x73>",
    "119": "<0x74>",
    "120": "<0x75>",
    "121": "<0x76>",
    "122": "<0x77>",
    "123": "<0x78>",
    "124": "<0x79>",
    "125": "<0x7A>",
    "126": "<0x7B>",
    "127": "<0x7C>",
    "128": "<0x7D>",
    "129": "<0x7E>",
    "130": "<0x7F>",
    "131": "<0x80>",
    "132": "<0x81>",
    "133": "<0x82>",
    "134": "<0x83>",
    "135": "<0x84>",
    "136": "<0x85>",
    "137": "<0x86>",
    "138": "<0x87>",
    "139": "<0x88>",
    "140": "<0x89>",
    "141": "<0x8A>",
    "142": "<0x8B>",
    "143": "<0x8C>",
    "144": "<0x8D>",
    "145": "<0x8E>",
    "146": "<0x8F>",
    "147": "<0x90>",
    "148": "<0x91>",
    "149": "<0x92>",
    "150": "<0x93>",
    "151": "<0x94>",
    "152": "<0x95>",
    "153": "<0x96>",
    "154": "<0x97>",
    "155": "<0x98>",
    "156": "<0x99>",
    "157": "<0x9A>",
    "158": "<0x9B>",
    "159": "<0x9C>",
    "160": "<0x9D>",
    "161": "<0x9E>",
    "162": "<0x9F>",
    "163": "<0xA0>",
    "164": "<0xA1>",
    "165": "<0xA2>",
    "166": "<0xA3>",
    "167": "<0xA4>",
    "168": "<0xA5>",
    "169": "<0xA6>",
    "170": "<0xA7>",
    "171": "<0xA8>",
    "172": "<0xA9>",
    "173": "<0xAA>",
    "174": "<0xAB>",
    "175": "<0xAC>",
    "176": "<0xAD>",
    "177": "<0xAE>",
    "178": "<0xAF>",
    "179": "<0xB0>",
    "180": "<0xB1>",
    "181": "<0xB2>",
    "182": "<0xB3>",
    "183": "<0xB4>",
    "184": "<0xB5>",
    "185": "<0xB6>",
    "186": "<0xB7>",
    "187": "<0xB8>",
    "188": "<0xB9>",
    "189": "<0xBA>",
    "190": "<0xBB>",
    "191": "<0xBC>",
    "192": "<0xBD>",
    "193": "<0xBE>",
    "194": "<0xBF>",
    "195": "<0xC0>",
    "196": "<0xC1>",
    "197": "<0xC2>",
    "198": "<0xC3>",
    "199": "<0xC4>",
    "200": "<0xC5>",
    "201": "<0xC6>",
    "202": "<0xC7>",
    "203": "<0xC8>",
    "204": "<0xC9>",
    "205": "<0xCA>",
    "206": "<0xCB>",
    "207": "<0xCC>",
    "208": "<0xCD>",
    "209": "<0xCE>",
    "210": "<0xCF>",
    "211": "<0xD0>",
    "212": "<0xD1>",
    "213": "<0xD2>",
    "214": "<0xD3>",
    "215": "<0xD4>",
    "216": "<0xD5>",
    "217": "<0xD6>",
    "218": "<0xD7>",
    "219": "<0xD8>",
    "220": "<0xD9>",
    "221": "<0xDA>",
    "222": "<0xDB>",
    "223": "<0xDC>",
    "224": "<0xDD>",
    "225": "<0xDE>",
    "226": "<0xDF>",
    "227": "<0xE0>",
    "228": "<0xE1>",
    "229": "<0xE2>",
    "230": "<0xE3>",
    "231": "<0xE4>",
    "232": "<0xE5>",
    "233": "<0xE6>",
    "234": "<0xE7>",
    "235": "<0xE8>",
    "236": "<0xE9>",
    "237": "<0xEA>",
    "238": "<0xEB>",
    "239": "<0xEC>",
    "240": "<0xED>",
    "241": "<0xEE>",
    "242": "<0xEF>",
    "243": "<0xF0>",
    "244": "<0xF1>",
    "245": "<0xF2>",
    "246": "<0xF3>",
    "247": "<0xF4>",
    "248": "<0xF5>",
    "249": "<0xF6>",
    "250": "<0xF7>",
    "251": "<0xF8>",
    "252": "<0xF9>",
    "253": "<0xFA>",
    "254": "<0xFB>",
    "255": "<0xFC>",
    "256": "<0xFD>",
    "257": "<0xFE>",
    "258": "<0xFF>",
    "9314": "<<",
    "14065": "<=",
    "25299": "<>",
    "27258": "<>();",
    "8169": "<?",
    "13505": "<\\",
    "1": "<s>",
    "0": "<unk>",
    "32001": "<|assistant|>",
    "32000": "<|endoftext|>",
    "32007": "<|end|>",
    "32002": "<|placeholder1|>",
    "32003": "<|placeholder2|>",
    "32004": "<|placeholder3|>",
    "32005": "<|placeholder4|>",
    "32008": "<|placeholder5|>",
    "32009": "<|placeholder6|>",
    "32006": "<|system|>",
    "32010": "<|user|>",
    "29922": "=",
    "543": "=\"",
    "13776": "=\"\"",
    "9880": "=\"#",
    "18965": "=\"$",
    "19070": "=\"${",
    "29569": "=\".",
    "13802": "=\"/",
    "25076": "=\"<?",
    "5213": "=\"@",
    "9438": "=\"@+",
    "10724": "=\"{",
    "6080": "=$",
    "19758": "=$(",
    "23339": "=${",
    "16328": "=%",
    "29332": "=&",
    "2433": "='",
    "7607": "=(",
    "10457": "=-",
    "21098": "=.",
    "14327": "=/",
    "1360": "==",
    "26359": "==\"",
    "25512": "===",
    "2751": "====",
    "4936": "========",
    "9166": "================",
    "4261": "=>",
    "11759": "=[",
    "2013": "=\\",
    "14672": "=\\\"",
    "27805": "=\\{",
    "12557": "=`",
    "3790": "={",
    "21854": "={\\",
    "28493": "={{",
    "29958": ">",
    "3238": ">\r",
    "11903": ">\"",
    "28341": ">\",",
    "16871": ">\";",
    "19250": ">&",
    "16299": ">'",
    "23625": ">';",
    "5961": ">(",
    "16917": ">()",
    "8295": ">();",
    "12948": ">)",
    "10202": ">,",
    "15513": ">.",
    "20690": ">/",
    "23917": ">:",
    "21347": ">::",
    "25867": ">;",
    "5299": "><",
    "2565": "></",
    "18572": ">=",
    "6778": ">>",
    "24566": ">[",
    "14247": ">\\",
    "20824": ">\\<",
    "26498": ">\\<^",
    "13885": ">`",
    "26208": ">{",
    "29973": "?",
    "3026": "?\"",
    "17901": "?'",
    "26889": "?(",
    "7897": "?)",
    "14579": "?,",
    "9808": "?.",
    "25825": "?:",
    "17382": "?>",
    "8773": "??",
    "28772": "???",
    "10846": "?](",
    "13684": "?}",
    "6677": "?\u201d",
    "29992": "@",
    "5507": "@\"",
    "24695": "@\",",
    "25380": "@@",
    "28312": "@{",
    "29909": "A",
    "6344": "AA",
    "23184": "AAAA",
    "2882": "AB",
    "27982": "ABASE",
    "19658": "ABC",
    "6181": "ABLE",
    "2477": "AC",
    "11538": "ACE",
    "11375": "ACK",
    "17923": "ACT",
    "24705": "ACTION",
    "3035": "AD",
    "17744": "ADD",
    "16036": "AE",
    "5098": "AF",
    "10051": "AG",
    "10461": "AGE",
    "23869": "AI",
    "22311": "AK",
    "1964": "AL",
    "9818": "ALL",
    "12195": "ALSE",
    "5194": "AM",
    "25797": "AME",
    "23956": "AML",
    "19297": "AMP",
    "2190": "AN",
    "23219": "ANCE",
    "9468": "AND",
    "19453": "ANG",
    "24336": "ANGE",
    "13566": "ANT",
    "3301": "AP",
    "8787": "API",
    "20576": "APP",
    "1718": "AR",
    "15364": "ARCHAR",
    "17011": "ARD",
    "15249": "ARN",
    "25614": "ARNING",
    "8322": "ART",
    "19926": "ARY",
    "3289": "AS",
    "28599": "ASC",
    "8127": "ASE",
    "24943": "ASH",
    "22933": "ASS",
    "28938": "AST",
    "1299": "AT",
    "8254": "ATA",
    "14789": "ATCH",
    "3040": "ATE",
    "7534": "ATH",
    "8098": "ATION",
    "25951": "AU",
    "20656": "AUT",
    "7520": "AV",
    "26612": "AVA",
    "29376": "AW",
    "6604": "AX",
    "23867": "AXI",
    "4920": "Ab",
    "28173": "About",
    "9118": "Abstract",
    "10644": "Ac",
    "7504": "Acc",
    "23965": "Accept",
    "6638": "Access",
    "16055": "Accessor",
    "20527": "AccessorImpl",
    "10601": "Account",
    "2865": "Act",
    "4276": "Action",
    "26525": "Actions",
    "21786": "Activ",
    "9966": "Active",
    "3886": "Activity",
    "15746": "ActivityThread",
    "3253": "Ad",
    "6168": "Adapter",
    "2528": "Add",
    "7061": "Address",
    "12754": "Admin",
    "27867": "Aff",
    "13555": "After",
    "14769": "Ag",
    "22406": "Age",
    "19661": "Agent",
    "17565": "Ah",
    "2499": "Al",
    "16649": "Alert",
    "17406": "Alex",
    "22461": "Alg",
    "14658": "Alignment",
    "3596": "All",
    "28874": "Allemagne",
    "15930": "Allow",
    "28630": "Alpha",
    "17351": "Also",
    "24528": "Alt",
    "6833": "Am",
    "9816": "Amer",
    "29048": "America",
    "14689": "American",
    "18087": "Amount",
    "2744": "An",
    "21067": "Anal",
    "24458": "Anchor",
    "2855": "And",
    "8136": "Android",
    "12746": "AndroidRuntime",
    "9928": "Ang",
    "19582": "Angle",
    "21645": "Anim",
    "13579": "Animation",
    "21978": "Annotation",
    "22550": "Answer",
    "13448": "Ant",
    "10773": "Any",
    "17396": "Ap",
    "11713": "Api",
    "2052": "App",
    "27674": "AppData",
    "18277": "Append",
    "4873": "Application",
    "1433": "Ar",
    "13197": "Arch",
    "17506": "Are",
    "13799": "Area",
    "8559": "Arg",
    "7883": "Args",
    "15730": "Argument",
    "26915": "Arguments",
    "27429": "Arm",
    "16401": "Arr",
    "2588": "Array",
    "20165": "ArrayList",
    "9986": "Art",
    "2887": "As",
    "7900": "Ass",
    "22400": "Assembly",
    "14697": "Assert",
    "26405": "Asset",
    "29254": "Associ",
    "8123": "Async",
    "4178": "At",
    "16686": "AtIndex",
    "29809": "AtIndexPath",
    "27753": "Atlas",
    "4165": "Att",
    "25098": "Attr",
    "6708": "Attribute",
    "15801": "Attributes",
    "17111": "Audio",
    "26197": "August",
    "18306": "Aus",
    "22537": "Austral",
    "6147": "Aut",
    "6444": "Auth",
    "16746": "Authentication",
    "13720": "Author",
    "25471": "Authorization",
    "12300": "Auto",
    "28451": "Autom",
    "23527": "Autow",
    "27932": "Autres",
    "12810": "Av",
    "27635": "Available",
    "16070": "Axis",
    "16748": "Az",
    "28413": "Azure",
    "29933": "B",
    "5688": "BA",
    "25416": "BASE",
    "14388": "BB",
    "5371": "BC",
    "29121": "BD",
    "15349": "BE",
    "13635": "BER",
    "28062": "BF",
    "12809": "BI",
    "22698": "BIT",
    "13367": "BL",
    "8456": "BO",
    "28443": "BOOL",
    "15176": "BR",
    "9851": "BS",
    "7838": "BU",
    "11578": "BUG",
    "22716": "BY",
    "5841": "Back",
    "10581": "Background",
    "22050": "Bad",
    "23544": "Bag",
    "22031": "Bal",
    "4297": "Bar",
    "9496": "Bas",
    "5160": "Base",
    "16616": "Basic",
    "23145": "Batch",
    "15165": "Bbb",
    "3629": "Be",
    "8217": "Bean",
    "24793": "BeanFactory",
    "18743": "Before",
    "17946": "Begin",
    "28100": "Behavior",
    "21140": "Bel",
    "20841": "Ben",
    "17104": "Ber",
    "25353": "Best",
    "20517": "Bi",
    "6970": "Big",
    "25196": "Binary",
    "15708": "Bind",
    "9270": "Binding",
    "21591": "Bit",
    "15184": "Bitmap",
    "10358": "Bl",
    "18700": "Black",
    "7445": "Block",
    "21319": "Blue",
    "8431": "Bo",
    "28397": "Board",
    "29362": "Bob",
    "8434": "Body",
    "10967": "Book",
    "24693": "Bool",
    "18146": "Boolean",
    "20967": "Boot",
    "17025": "Border",
    "15342": "Bottom",
    "17109": "Bound",
    "18526": "Bounds",
    "3313": "Box",
    "12432": "Br",
    "28183": "Bra",
    "22097": "Brain",
    "23709": "Brainz",
    "20130": "Bre",
    "29857": "Bro",
    "21537": "Browser",
    "27680": "Brush",
    "20808": "Btn",
    "3727": "Bu",
    "7701": "Buffer",
    "8893": "Build",
    "5627": "Builder",
    "9534": "Bundle",
    "16890": "Bus",
    "6246": "But",
    "29819": "Butt",
    "3125": "Button",
    "2059": "By",
    "4499": "ById",
    "26918": "ByVal",
    "12901": "Byte",
    "11207": "Bytes",
    "29907": "C",
    "5454": "CA",
    "22701": "CAA",
    "23487": "CASE",
    "23972": "CAT",
    "21685": "CB",
    "4174": "CC",
    "19043": "CCE",
    "26925": "CCESS",
    "12921": "CCN",
    "6530": "CD",
    "4741": "CE",
    "27266": "CES",
    "23524": "CESS",
    "9207": "CF",
    "11135": "CG",
    "3210": "CH",
    "11282": "CHAR",
    "8426": "CI",
    "7077": "CK",
    "6154": "CL",
    "13875": "CLA",
    "24529": "CLARE",
    "18367": "CLC",
    "27205": "CLI",
    "24494": "CM",
    "13778": "CN",
    "3217": "CO",
    "16524": "CODE",
    "15032": "COL",
    "19795": "COM",
    "21514": "COMP",
    "6007": "CON",
    "25903": "CONFIG",
    "22412": "CONT",
    "18736": "COUNT",
    "6271": "CP",
    "11341": "CR",
    "22245": "CRE",
    "27045": "CREATE",
    "9295": "CS",
    "19407": "CSS",
    "1783": "CT",
    "9838": "CTION",
    "20014": "CTYPE",
    "22484": "CUR",
    "15633": "CV",
    "26270": "Ca",
    "10408": "Cache",
    "7856": "Cal",
    "27065": "Calcul",
    "17447": "Calendar",
    "5594": "Call",
    "10717": "Callback",
    "14353": "Cam",
    "20717": "Camera",
    "6028": "Can",
    "19420": "Cancel",
    "29089": "Cannot",
    "21960": "Canvas",
    "12415": "Cap",
    "21133": "Capt",
    "8179": "Car",
    "13200": "Card",
    "25233": "Cart",
    "8259": "Case",
    "15738": "Cast",
    "9694": "Cat",
    "10900": "Category",
    "4617": "Cell",
    "13418": "Cells",
    "23369": "Cent",
    "13409": "Center",
    "20455": "Cert",
    "1451": "Ch",
    "14688": "Chain",
    "7277": "Change",
    "7590": "Changed",
    "21459": "Changes",
    "13599": "Channel",
    "5914": "Char",
    "27890": "CharField",
    "20755": "Character",
    "14732": "Chart",
    "26856": "Che",
    "5596": "Check",
    "28360": "CheckBox",
    "17817": "Checked",
    "5938": "Child",
    "19334": "Children",
    "15954": "Cho",
    "29620": "Choice",
    "11626": "Chr",
    "18687": "Christ",
    "23495": "Circ",
    "16885": "City",
    "6821": "Cl",
    "20216": "Cla",
    "2385": "Class",
    "20746": "ClassLoader",
    "23607": "ClassName",
    "27403": "Classes",
    "18759": "Clear",
    "4164": "Click",
    "11676": "ClickListener",
    "4032": "Client",
    "11123": "Close",
    "20442": "Cloud",
    "23651": "Cmd",
    "7967": "Co",
    "3399": "Code",
    "1625": "Col",
    "28377": "Coll",
    "28916": "Collect",
    "7196": "Collection",
    "26588": "CollectionView",
    "19466": "Collections",
    "3306": "Color",
    "4409": "Column",
    "14289": "Columns",
    "1523": "Com",
    "26628": "ComboBox",
    "27796": "Come",
    "5261": "Comm",
    "6255": "Command",
    "20001": "Comment",
    "18877": "Common",
    "6843": "Comp",
    "21410": "Company",
    "14644": "Compat",
    "25333": "Compiler",
    "8909": "Comple",
    "17813": "Complete",
    "26010": "Completed",
    "28958": "Completion",
    "5308": "Component",
    "25503": "Components",
    "20606": "Comput",
    "1168": "Con",
    "10983": "Cond",
    "25255": "Condition",
    "16376": "Conf",
    "3991": "Config",
    "8614": "Configuration",
    "20971": "Conne",
    "17918": "Connect",
    "5350": "Connection",
    "13696": "Cons",
    "20008": "Console",
    "12075": "Const",
    "26570": "Constants",
    "14131": "Constra",
    "21529": "Constraint",
    "27427": "Constraints",
    "23770": "Constructor",
    "1323": "Cont",
    "13443": "Contact",
    "7895": "Container",
    "21409": "Contains",
    "3916": "Content",
    "21788": "ContentView",
    "21002": "Contents",
    "2677": "Context",
    "21263": "Contract",
    "4809": "Control",
    "2956": "Controller",
    "17825": "Controls",
    "18455": "Convert",
    "18545": "Converter",
    "19159": "Cook",
    "24914": "Cookie",
    "11882": "Copy",
    "12521": "Cor",
    "9203": "Core",
    "25733": "Cost",
    "23323": "Could",
    "3981": "Count",
    "17779": "Counter",
    "20779": "Country",
    "20647": "Cr",
    "9832": "Cre",
    "4391": "Create",
    "20399": "Created",
    "15507": "Cred",
    "28037": "Credentials",
    "18069": "Ctrl",
    "27926": "Culture",
    "23902": "Cur",
    "7583": "Current",
    "19890": "Cursor",
    "7281": "Custom",
    "15122": "Customer",
    "29733": "Cy",
    "29928": "D",
    "7698": "DA",
    "25832": "DAT",
    "14573": "DATA",
    "6248": "DATE",
    "28658": "DAY",
    "4051": "DB",
    "22840": "DBC",
    "12696": "DC",
    "7858": "DD",
    "2287": "DE",
    "18525": "DEBUG",
    "24405": "DEF",
    "23397": "DEFAULT",
    "8032": "DER",
    "19577": "DEX",
    "4037": "DF",
    "4571": "DI",
    "9464": "DIR",
    "23711": "DIS",
    "17359": "DK",
    "19558": "DL",
    "23560": "DM",
    "28307": "DN",
    "3970": "DO",
    "28665": "DOC",
    "21300": "DOCTYPE",
    "22141": "DOM",
    "11191": "DP",
    "8353": "DR",
    "8452": "DS",
    "12972": "DT",
    "14849": "DU",
    "27838": "Da",
    "18529": "Dan",
    "29866": "Daniel",
    "16390": "Dat",
    "1469": "Data",
    "17271": "DataFrame",
    "28449": "DataSet",
    "15559": "DataSource",
    "9112": "Database",
    "2539": "Date",
    "29795": "DateFormat",
    "11384": "DateTime",
    "6086": "Datos",
    "19504": "David",
    "12742": "Day",
    "25991": "Days",
    "10234": "Db",
    "2772": "De",
    "10251": "Deb",
    "11862": "Debug",
    "6185": "Dec",
    "23307": "Decimal",
    "3206": "Def",
    "4592": "Default",
    "24863": "Defaults",
    "14683": "Definition",
    "13157": "Del",
    "24996": "Delay",
    "28222": "Deleg",
    "11494": "Delegate",
    "12498": "Delete",
    "5268": "Delta",
    "23444": "Demo",
    "29315": "Den",
    "8498": "Dep",
    "15383": "Der",
    "4002": "Des",
    "19617": "Desc",
    "9868": "Description",
    "19124": "Descriptor",
    "17600": "Desktop",
    "14994": "Dest",
    "6362": "Det",
    "16570": "Detail",
    "10602": "Details",
    "16618": "Dev",
    "21956": "Develop",
    "11501": "Device",
    "12130": "Di",
    "7647": "Dialog",
    "21533": "Dict",
    "11513": "Dictionary",
    "9260": "Did",
    "20127": "DidLoad",
    "16334": "Die",
    "26023": "Diff",
    "14991": "Dig",
    "27103": "Digital",
    "16142": "Dim",
    "9170": "Dir",
    "17392": "Direct",
    "21602": "Direction",
    "9882": "Directory",
    "4205": "Dis",
    "14777": "Dispatch",
    "23669": "Dispatcher",
    "9323": "Display",
    "13398": "Dist",
    "27469": "Distance",
    "12596": "Div",
    "6132": "Do",
    "14526": "Doc",
    "6268": "Document",
    "20128": "Documents",
    "25125": "Does",
    "11096": "Dom",
    "15951": "Domain",
    "10310": "Don",
    "28080": "Donald",
    "25632": "Done",
    "11843": "Double",
    "6767": "Down",
    "22954": "Download",
    "25639": "Dr",
    "24515": "Dra",
    "23978": "Drag",
    "8537": "Draw",
    "26945": "Drawable",
    "27528": "Drawer",
    "16327": "Drawing",
    "12376": "Driver",
    "15063": "Drop",
    "18984": "Duration",
    "24001": "Dynamic",
    "29923": "E",
    "26441": "EAR",
    "25752": "EB",
    "11206": "EC",
    "16658": "ECK",
    "13845": "ECT",
    "3352": "ED",
    "12378": "EDIT",
    "17896": "EE",
    "29638": "EF",
    "11787": "EG",
    "17958": "EGIN",
    "6670": "EL",
    "27286": "ELD",
    "12665": "EM",
    "26862": "EMA",
    "1430": "EN",
    "11794": "END",
    "3919": "ENT",
    "25838": "ENV",
    "15488": "EP",
    "28879": "EQ",
    "1001": "ER",
    "27267": "ERE",
    "21662": "ERR",
    "11432": "ERROR",
    "23598": "ERS",
    "20161": "ERT",
    "24422": "ERY",
    "2890": "ES",
    "2544": "ET",
    "22240": "EV",
    "5746": "EX",
    "12194": "EXT",
    "13282": "EY",
    "9760": "Each",
    "3853": "Ed",
    "23894": "Edge",
    "6103": "Edit",
    "24739": "EditText",
    "15280": "Editor",
    "13971": "Effect",
    "6489": "El",
    "2642": "Element",
    "18868": "Elements",
    "27406": "Else",
    "6026": "Em",
    "9823": "Email",
    "10495": "Emp",
    "19461": "Employee",
    "8915": "Empty",
    "2369": "En",
    "20701": "Enable",
    "10861": "Enabled",
    "8566": "Enc",
    "14934": "Encoding",
    "5044": "End",
    "25602": "Endpoint",
    "8100": "Eng",
    "12412": "Engine",
    "24636": "English",
    "5292": "Ent",
    "10399": "Enter",
    "6691": "Entity",
    "9634": "Entry",
    "16854": "Enum",
    "21745": "Env",
    "18649": "Environment",
    "18630": "Eq",
    "6108": "Equ",
    "9843": "Equal",
    "14776": "Equals",
    "2110": "Er",
    "19212": "Err",
    "2392": "Error",
    "22463": "Errors",
    "14190": "Es",
    "15784": "Esp",
    "24624": "Espagne",
    "12787": "Est",
    "15654": "Europe",
    "2624": "Event",
    "16806": "EventArgs",
    "12825": "EventListener",
    "13634": "Events",
    "26526": "Every",
    "1252": "Ex",
    "14023": "Example",
    "22926": "Excel",
    "2451": "Exception",
    "5379": "Exec",
    "12296": "Execute",
    "20418": "Execution",
    "13366": "Executor",
    "24217": "Exists",
    "24365": "Exit",
    "9544": "Exp",
    "29777": "Expand",
    "26382": "Export",
    "21176": "Expr",
    "27404": "Express",
    "10960": "Expression",
    "5647": "Ext",
    "17657": "Extension",
    "26982": "Extensions",
    "25865": "External",
    "18126": "Extra",
    "29943": "F",
    "4519": "FA",
    "25717": "FALSE",
    "13274": "FAULT",
    "18426": "FB",
    "8610": "FC",
    "26453": "FD",
    "16359": "FE",
    "4198": "FF",
    "28483": "FFER",
    "22098": "FFFF",
    "3738": "FI",
    "18667": "FIG",
    "7724": "FILE",
    "24483": "FILES",
    "25634": "FIX",
    "10536": "FL",
    "18823": "FLA",
    "26516": "FLAG",
    "22192": "FM",
    "5800": "FO",
    "22051": "FOR",
    "19094": "FORM",
    "26353": "FP",
    "15860": "FR",
    "21482": "FROM",
    "9998": "FS",
    "7818": "FT",
    "26753": "FX",
    "14206": "Fa",
    "23360": "Face",
    "20738": "Fact",
    "5126": "Factory",
    "16243": "Fail",
    "17776": "Failed",
    "24155": "Failure",
    "8824": "False",
    "22555": "Famil",
    "27104": "Family",
    "8263": "Fe",
    "19132": "Feature",
    "29737": "Feed",
    "20899": "Fern",
    "25582": "Fernseh",
    "20927": "Fetch",
    "18800": "Fi",
    "24026": "Fiddle",
    "3073": "Field",
    "14256": "Fields",
    "13080": "Fig",
    "3434": "Fil",
    "2283": "File",
    "17020": "FileName",
    "10547": "Files",
    "20876": "Fill",
    "5072": "Filter",
    "21621": "FilterChain",
    "12881": "Fin",
    "15790": "Final",
    "12542": "Find",
    "18654": "Fire",
    "6730": "First",
    "29541": "FirstName",
    "26262": "Fixed",
    "8754": "Fl",
    "21979": "Flag",
    "15675": "Flags",
    "11031": "Float",
    "17907": "Flow",
    "29137": "Fn",
    "20560": "Focus",
    "12924": "Folder",
    "9824": "Font",
    "14016": "Foo",
    "13440": "Foot",
    "22626": "Footnote",
    "2831": "For",
    "23640": "ForKey",
    "27755": "Foreign",
    "2500": "Form",
    "5809": "Format",
    "18522": "Formatter",
    "12605": "Forms",
    "9692": "Found",
    "28077": "Foundation",
    "14438": "Fr",
    "8752": "Fragment",
    "4308": "Frame",
    "16660": "Framework",
    "7675": "Fran",
    "16066": "France",
    "23923": "Fre",
    "20475": "Free",
    "27034": "Fri",
    "4591": "From",
    "29348": "Front",
    "13658": "Full",
    "25394": "Fun",
    "14400": "Func",
    "6678": "Function",
    "20154": "Future",
    "29954": "G",
    "12739": "GA",
    "7210": "GB",
    "8766": "GC",
    "1692": "GE",
    "24647": "GEN",
    "17070": "GER",
    "7194": "GET",
    "26788": "GG",
    "7239": "GL",
    "21576": "GM",
    "20728": "GN",
    "17080": "GO",
    "19903": "GP",
    "14345": "GR",
    "26284": "GROUP",
    "10749": "GS",
    "23799": "GT",
    "22928": "GV",
    "14199": "Game",
    "6642": "Gamma",
    "7999": "Ge",
    "15462": "Gen",
    "5631": "Gener",
    "15263": "General",
    "24565": "Generated",
    "21575": "Generator",
    "15809": "Generic",
    "22539": "Gest",
    "24110": "Gesture",
    "2577": "Get",
    "26074": "Gi",
    "28712": "Git",
    "12756": "Global",
    "8120": "Go",
    "18420": "Good",
    "14207": "Google",
    "3338": "Gr",
    "25584": "Grad",
    "9527": "Graph",
    "17290": "Graphics",
    "25120": "Gre",
    "24599": "Green",
    "5756": "Grid",
    "16584": "GridView",
    "4782": "Group",
    "24020": "Groups",
    "9485": "Gu",
    "28707": "Gui",
    "29950": "H",
    "15715": "HA",
    "19127": "HC",
    "26124": "HD",
    "9606": "HE",
    "23252": "HEAD",
    "4448": "HER",
    "5006": "HERE",
    "27590": "HH",
    "17628": "HI",
    "15444": "HL",
    "8187": "HO",
    "17353": "HOME",
    "20832": "HOST",
    "3954": "HP",
    "20938": "HR",
    "14851": "HS",
    "3912": "HT",
    "7020": "HTML",
    "10493": "HTTP",
    "24704": "Ha",
    "3481": "Hand",
    "13554": "Handle",
    "4598": "Handler",
    "21972": "Har",
    "14510": "Has",
    "10438": "Hash",
    "27824": "HashMap",
    "25559": "Have",
    "3868": "He",
    "5494": "Head",
    "7850": "Header",
    "18163": "Headers",
    "7011": "Height",
    "7658": "Hel",
    "10994": "Hello",
    "29648": "Help",
    "10739": "Helper",
    "24030": "Hen",
    "18650": "Her",
    "10605": "Here",
    "18567": "Hi",
    "25108": "Hidden",
    "16382": "High",
    "28016": "Hint",
    "20570": "History",
    "19984": "Hol",
    "29144": "Hold",
    "11439": "Holder",
    "24259": "Hom",
    "11184": "Home",
    "17241": "Hor",
    "24932": "Horizontal",
    "8514": "Host",
    "28917": "Hot",
    "5328": "How",
    "17245": "However",
    "9462": "Hozz\u00e1f\u00e9r\u00e9s",
    "10196": "Hrsg",
    "10922": "Html",
    "5506": "Http",
    "26021": "HttpRequest",
    "16046": "Hub",
    "26322": "Hy",
    "12661": "Hz",
    "29902": "I",
    "10764": "IA",
    "23731": "IAB",
    "24291": "IABot",
    "25758": "IAL",
    "8979": "IB",
    "2965": "IC",
    "28541": "ICATION",
    "12107": "ICE",
    "1367": "ID",
    "22027": "IDE",
    "8673": "IE",
    "29059": "IES",
    "6545": "IF",
    "6259": "IG",
    "22530": "IGHT",
    "17298": "IGN",
    "2687": "II",
    "5287": "III",
    "23328": "IK",
    "6227": "IL",
    "24071": "ILL",
    "7833": "IM",
    "2260": "IMA",
    "2382": "IMAGE",
    "24480": "IMARY",
    "8890": "IME",
    "1177": "IN",
    "28852": "INCT",
    "22255": "IND",
    "27992": "INDEX",
    "8895": "INE",
    "24065": "INF",
    "11690": "INFO",
    "4214": "ING",
    "26019": "INIT",
    "19460": "INSERT",
    "25580": "INST",
    "10192": "INT",
    "23845": "INTER",
    "5971": "IO",
    "20477": "IOException",
    "2725": "ION",
    "27946": "IONS",
    "25925": "IOS",
    "5690": "IP",
    "8193": "IR",
    "3235": "IS",
    "8587": "ISBN",
    "29096": "ISO",
    "9047": "IST",
    "24306": "ISTS",
    "1806": "IT",
    "9094": "ITE",
    "13054": "ITH",
    "22122": "ITION",
    "11937": "ITY",
    "12210": "ITable",
    "12882": "ITableView",
    "5667": "IV",
    "18474": "IVE",
    "6415": "IX",
    "26664": "IZ",
    "12492": "Icon",
    "1204": "Id",
    "7648": "Ident",
    "12889": "Identifier",
    "18415": "Identity",
    "21943": "Ids",
    "3644": "If",
    "28600": "Ig",
    "17273": "Ign",
    "23805": "Ignore",
    "14126": "Il",
    "10002": "Ill",
    "12614": "Illustration",
    "1888": "Im",
    "2940": "Image",
    "14460": "ImageView",
    "20163": "Images",
    "25518": "Img",
    "24192": "Imp",
    "6647": "Impl",
    "17518": "Import",
    "797": "In",
    "29419": "Include",
    "2568": "Ind",
    "3220": "Index",
    "27762": "IndexPath",
    "28013": "Indicator",
    "25433": "Inf",
    "15403": "Infl",
    "17107": "Inflater",
    "3401": "Info",
    "20350": "Information",
    "6644": "Init",
    "15514": "Initial",
    "28329": "Inject",
    "27748": "Inner",
    "4290": "Input",
    "13828": "InputStream",
    "17491": "Insert",
    "3379": "Inst",
    "23271": "Install",
    "4998": "Instance",
    "12223": "InstanceState",
    "24985": "Institut",
    "2928": "Int",
    "7798": "Integer",
    "23573": "Integr",
    "10286": "Intent",
    "4074": "Inter",
    "24923": "Interceptor",
    "10448": "Interface",
    "17579": "Intern",
    "16491": "Internal",
    "26341": "Internet",
    "12506": "Interval",
    "25898": "Introduction",
    "12165": "Inv",
    "13919": "Invalid",
    "27613": "Invocation",
    "20731": "Invoke",
    "3624": "Is",
    "3112": "It",
    "10512": "Ital",
    "20988": "Italia",
    "28314": "Italie",
    "2001": "Item",
    "6913": "Items",
    "13463": "Iter",
    "20277": "Iterator",
    "29967": "J",
    "16405": "JAX",
    "29674": "JB",
    "17637": "JECT",
    "8700": "JS",
    "7249": "JSON",
    "24288": "Jac",
    "27006": "Jack",
    "29470": "James",
    "26626": "Jan",
    "8404": "Java",
    "16963": "JavaScript",
    "13836": "Je",
    "22438": "Jean",
    "10844": "Jo",
    "11947": "Job",
    "11639": "John",
    "17242": "Join",
    "26473": "Jose",
    "25498": "Js",
    "8148": "Json",
    "27501": "Jul",
    "14084": "Just",
    "29968": "K",
    "26067": "KB",
    "6059": "KE",
    "10818": "KEY",
    "17557": "KS",
    "24115": "Kar",
    "9598": "Ke",
    "2558": "Key",
    "15506": "Keys",
    "11885": "Kind",
    "13117": "Kit",
    "29931": "L",
    "4375": "LA",
    "24461": "LAB",
    "18799": "LAY",
    "12182": "LC",
    "10249": "LD",
    "1307": "LE",
    "14063": "LEASE",
    "3281": "LECT",
    "20566": "LED",
    "28024": "LEFT",
    "19271": "LENG",
    "19433": "LENGTH",
    "17101": "LES",
    "18476": "LETE",
    "5265": "LI",
    "27888": "LIC",
    "23714": "LIN",
    "18521": "LINE",
    "24360": "LIST",
    "2208": "LL",
    "26369": "LM",
    "3927": "LO",
    "29428": "LOAD",
    "28902": "LOB",
    "16652": "LOC",
    "21339": "LOCK",
    "14480": "LOG",
    "27998": "LOW",
    "13208": "LP",
    "29519": "LR",
    "8547": "LS",
    "5850": "LT",
    "16786": "LY",
    "5661": "La",
    "28632": "Lab",
    "4775": "Label",
    "9099": "Lambda",
    "22677": "Land",
    "21233": "Language",
    "24105": "Lar",
    "8897": "Last",
    "13992": "Lat",
    "17641": "Launch",
    "14420": "Layer",
    "3453": "Layout",
    "26358": "LayoutInflater",
    "26476": "LayoutParams",
    "3226": "Le",
    "8091": "Left",
    "22988": "Leg",
    "21515": "Len",
    "6513": "Length",
    "24560": "Les",
    "12024": "Let",
    "10108": "Level",
    "23410": "Li",
    "14868": "Lib",
    "12284": "Library",
    "26754": "Life",
    "20769": "Light",
    "27552": "Like",
    "24445": "Limit",
    "11667": "Lin",
    "3542": "Line",
    "12697": "Linear",
    "15575": "LinearLayout",
    "20261": "Lines",
    "6595": "Link",
    "24085": "Linux",
    "1293": "List",
    "27490": "ListItem",
    "15660": "ListView",
    "3962": "Listener",
    "24938": "Liter",
    "23859": "Live",
    "25852": "Lng",
    "3410": "Lo",
    "5896": "Load",
    "29147": "Loaded",
    "10036": "Loader",
    "23456": "Loading",
    "3524": "Loc",
    "7717": "Local",
    "6508": "Location",
    "16542": "Lock",
    "3403": "Log",
    "16363": "Logger",
    "11049": "Login",
    "26682": "Lond",
    "8208": "Long",
    "22893": "Longrightarrow",
    "14959": "Look",
    "18405": "Loop",
    "29286": "Los",
    "20555": "Lou",
    "25216": "Louis",
    "19357": "Lower",
    "24126": "Lu",
    "29924": "M",
    "1529": "MA",
    "29032": "MAIN",
    "27616": "MAN",
    "23827": "MAP",
    "12648": "MAX",
    "9486": "MB",
    "12513": "MC",
    "5773": "MD",
    "11602": "MDb",
    "2303": "ME",
    "13780": "MENT",
    "10403": "MI",
    "16173": "MIN",
    "26349": "MIT",
    "1988": "ML",
    "7428": "MM",
    "6720": "MO",
    "20387": "MODE",
    "22877": "MON",
    "3580": "MP",
    "25566": "MQ",
    "21055": "MR",
    "4345": "MS",
    "11490": "MT",
    "25365": "MW",
    "17870": "MY",
    "21870": "Ma",
    "15735": "Mac",
    "29076": "Machine",
    "21878": "Mad",
    "19095": "Mag",
    "14925": "Mail",
    "6330": "Main",
    "23934": "MainActivity",
    "9984": "Make",
    "22995": "Mal",
    "2517": "Man",
    "26542": "Managed",
    "27107": "Management",
    "3260": "Manager",
    "14804": "Many",
    "3388": "Map",
    "9689": "Mapp",
    "19968": "Mapper",
    "15845": "Mapping",
    "7083": "Mar",
    "23572": "Marie",
    "9802": "Mark",
    "24619": "Marker",
    "15838": "Mart",
    "22628": "Martin",
    "19832": "Mask",
    "19203": "Master",
    "9782": "Mat",
    "9652": "Match",
    "24095": "Material",
    "11309": "Math",
    "14609": "Matrix",
    "7976": "Max",
    "12703": "May",
    "22762": "Maybe",
    "27297": "Mc",
    "6816": "Me",
    "19302": "Med",
    "10572": "Media",
    "11442": "Mem",
    "13404": "Member",
    "13922": "Memento",
    "16015": "Memory",
    "28154": "Men",
    "6823": "Menu",
    "21331": "MenuItem",
    "15836": "Mer",
    "19058": "Mess",
    "3728": "Message",
    "25510": "Messages",
    "10095": "Met",
    "19346": "Meta",
    "18417": "Metadata",
    "4062": "Method",
    "26112": "Methods",
    "14916": "Mich",
    "24083": "Michael",
    "11277": "Microsoft",
    "25411": "Middle",
    "29316": "Mil",
    "19169": "Mill",
    "8140": "Min",
    "18552": "Miss",
    "22638": "Mo",
    "29295": "Mobile",
    "18680": "Mock",
    "2111": "Mod",
    "19751": "Modal",
    "6818": "Mode",
    "3195": "Model",
    "23785": "Models",
    "7355": "Module",
    "7185": "Mon",
    "24665": "Mont",
    "13953": "Month",
    "28581": "Mor",
    "20761": "More",
    "27648": "Mount",
    "14346": "Mouse",
    "16619": "Move",
    "18749": "Movie",
    "20335": "Mr",
    "16190": "Msg",
    "6857": "Mult",
    "15329": "Multi",
    "11930": "Multimedia",
    "14958": "Mus",
    "21238": "Music",
    "15211": "Mutable",
    "27602": "Mvc",
    "3421": "My",
    "29940": "N",
    "3521": "NA",
    "5813": "NAME",
    "23189": "NB",
    "15868": "NC",
    "2797": "ND",
    "8186": "NE",
    "13865": "NER",
    "6006": "NET",
    "28577": "NEW",
    "22498": "NF",
    "9312": "NG",
    "12916": "NI",
    "25103": "NL",
    "10262": "NN",
    "6632": "NO",
    "12256": "NOT",
    "25500": "NP",
    "16514": "NR",
    "3059": "NS",
    "14301": "NSString",
    "29680": "NSURL",
    "20321": "NT",
    "11601": "NU",
    "10074": "NULL",
    "13967": "NUM",
    "23207": "NUMBER",
    "13695": "Na",
    "19377": "NaN",
    "1170": "Name",
    "22175": "Named",
    "8659": "Names",
    "23335": "Namespace",
    "27325": "National",
    "11024": "Native",
    "22107": "Nav",
    "20245": "Navigation",
    "8139": "Ne",
    "6779": "Net",
    "13724": "Network",
    "4373": "New",
    "29328": "News",
    "9190": "Next",
    "27823": "Nil",
    "3782": "No",
    "4247": "Node",
    "20284": "Nodes",
    "12283": "Non",
    "8516": "None",
    "19077": "Normal",
    "3664": "Not",
    "17413": "NotFound",
    "9842": "Note",
    "26521": "Nothing",
    "12958": "Notification",
    "25363": "Nov",
    "10454": "Now",
    "7327": "Null",
    "8009": "Num",
    "4557": "Number",
    "29478": "Numbers",
    "29949": "O",
    "14824": "OB",
    "20166": "OC",
    "13668": "OD",
    "9800": "OF",
    "27681": "OFF",
    "23170": "OH",
    "6992": "OIN",
    "8949": "OK",
    "5607": "OL",
    "6488": "OM",
    "1164": "ON",
    "12413": "ONE",
    "20614": "ONG",
    "4590": "OP",
    "14094": "OPT",
    "1955": "OR",
    "25593": "ORD",
    "22364": "ORDER",
    "12054": "ORM",
    "24125": "ORS",
    "8476": "ORT",
    "18929": "ORY",
    "3267": "OS",
    "3718": "OST",
    "2891": "OT",
    "27269": "OU",
    "22970": "OUR",
    "12015": "OUT",
    "9806": "OW",
    "6039": "Ob",
    "9930": "Obj",
    "2061": "Object",
    "12724": "Objects",
    "23313": "Obr\u00e1zky",
    "27928": "Observable",
    "28066": "Observer",
    "22034": "Occ",
    "25375": "Oct",
    "2776": "Of",
    "6880": "Off",
    "27247": "Office",
    "10302": "Offset",
    "9048": "Oh",
    "20434": "Ok",
    "21648": "Old",
    "5673": "Om",
    "5981": "Omega",
    "2951": "On",
    "15909": "OnClickListener",
    "26222": "Once",
    "6716": "One",
    "11730": "Only",
    "11746": "Op",
    "6585": "Open",
    "7094": "Oper",
    "10925": "Operation",
    "26486": "Operator",
    "20624": "Opt",
    "8375": "Option",
    "27636": "Optional",
    "5856": "Options",
    "2816": "Or",
    "23302": "Ord",
    "7514": "Order",
    "27356": "Organ",
    "15988": "Ori",
    "25231": "Orientation",
    "23182": "Origin",
    "26036": "Original",
    "24768": "Os",
    "16107": "Other",
    "3744": "Out",
    "29377": "Outlet",
    "6466": "Output",
    "16764": "OutputStream",
    "3563": "Over",
    "23773": "Overflow",
    "4640": "Override",
    "28213": "Owner",
    "29925": "P",
    "7228": "PA",
    "16320": "PAR",
    "26092": "PART",
    "25711": "PASS",
    "10145": "PATH",
    "9026": "PC",
    "25014": "PD",
    "8493": "PDF",
    "4162": "PE",
    "13171": "PER",
    "13691": "PF",
    "16903": "PG",
    "19689": "PH",
    "17130": "PHP",
    "2227": "PI",
    "21738": "PK",
    "7390": "PL",
    "13427": "PM",
    "15695": "PN",
    "13152": "PO",
    "15082": "PORT",
    "24815": "POS",
    "5438": "POST",
    "18009": "PP",
    "10593": "PR",
    "15094": "PRE",
    "29829": "PRI",
    "8618": "PRO",
    "7024": "PS",
    "7982": "PT",
    "7056": "PU",
    "12336": "PUT",
    "20055": "PY",
    "11868": "Pa",
    "16638": "Pack",
    "14459": "Package",
    "20369": "Pad",
    "5074": "Page",
    "22166": "Pager",
    "27514": "Pages",
    "28939": "Paint",
    "20547": "Pair",
    "18210": "Pal",
    "23684": "Pan",
    "13683": "Pane",
    "7490": "Panel",
    "2177": "Par",
    "4736": "Param",
    "9329": "Parameter",
    "11507": "Parameters",
    "9629": "Params",
    "9780": "Parent",
    "12914": "Parse",
    "11726": "Parser",
    "7439": "Part",
    "7129": "Pass",
    "10048": "Password",
    "11457": "Pat",
    "2605": "Path",
    "17144": "Pattern",
    "18275": "Paul",
    "15467": "Pay",
    "15666": "Pe",
    "5894": "Per",
    "27933": "Percent",
    "29853": "Period",
    "15737": "Perm",
    "27293": "Permission",
    "15136": "Pers",
    "7435": "Person",
    "23686": "Peter",
    "4819": "Ph",
    "9492": "Phi",
    "9861": "Phone",
    "25971": "Photo",
    "25847": "Phys",
    "12197": "Pi",
    "13954": "Picker",
    "28210": "Picture",
    "19621": "Pierre",
    "29637": "Pixel",
    "3247": "Pl",
    "22150": "Place",
    "20334": "Plan",
    "21889": "Platform",
    "13454": "Play",
    "9075": "Player",
    "12148": "Please",
    "20867": "Plot",
    "16288": "Plugin",
    "29575": "Plus",
    "9837": "Po",
    "27345": "Pod",
    "5228": "Point",
    "14516": "Pointer",
    "20325": "Points",
    "7713": "Pol",
    "15644": "Policy",
    "11426": "Pool",
    "12310": "Pop",
    "2290": "Port",
    "2639": "Portail",
    "9135": "Pos",
    "8003": "Position",
    "6747": "Post",
    "21472": "Power",
    "4040": "Pr",
    "6572": "Pre",
    "23084": "Pred",
    "22173": "Preferences",
    "23095": "Prefix",
    "13504": "Pres",
    "10923": "Press",
    "24104": "Pressed",
    "13026": "Price",
    "18213": "Prim",
    "26666": "Primary",
    "11816": "Print",
    "25207": "Private",
    "1184": "Pro",
    "26604": "Problem",
    "27893": "Proc",
    "7032": "Process",
    "18689": "Processor",
    "23665": "Produ",
    "7566": "Product",
    "25767": "Products",
    "13909": "Profile",
    "9283": "Program",
    "14470": "Progress",
    "7653": "Project",
    "25119": "Projects",
    "18571": "Prom",
    "28116": "Proof",
    "20420": "Prop",
    "11857": "Properties",
    "4854": "Property",
    "29109": "PropertyChanged",
    "20457": "Props",
    "17830": "Protocol",
    "6980": "Provider",
    "14048": "Proxy",
    "14118": "Psi",
    "12058": "Ptr",
    "21076": "Pub",
    "19858": "Public",
    "27031": "Push",
    "22908": "Put",
    "19737": "Py",
    "11980": "Python",
    "29984": "Q",
    "2239": "QL",
    "13356": "QU",
    "11144": "QUE",
    "14130": "QUEST",
    "17303": "Qt",
    "2182": "Qu",
    "24399": "Qual",
    "22930": "Quant",
    "8654": "Que",
    "3010": "Query",
    "16492": "Question",
    "10620": "Queue",
    "29934": "R",
    "4717": "RA",
    "25058": "RAM",
    "22800": "RAY",
    "10363": "RC",
    "1525": "RE",
    "16310": "READ",
    "11110": "REATE",
    "26282": "RECT",
    "19386": "RED",
    "21661": "REE",
    "25866": "REF",
    "18166": "REG",
    "14829": "RELEASE",
    "29450": "RENT",
    "16244": "REQUEST",
    "15989": "RES",
    "26785": "RESS",
    "28212": "RGB",
    "3960": "RI",
    "22789": "RIG",
    "24290": "RIPT",
    "2241": "RL",
    "1672": "RO",
    "3491": "ROM",
    "21289": "ROOT",
    "29366": "ROP",
    "7544": "ROR",
    "11419": "ROUP",
    "25180": "ROW",
    "12445": "RS",
    "13079": "RT",
    "28283": "RU",
    "13207": "RY",
    "9908": "Rad",
    "21818": "Radio",
    "20494": "Radius",
    "17875": "Random",
    "6069": "Range",
    "19907": "Rate",
    "22131": "Raw",
    "1123": "Re",
    "6359": "Read",
    "6982": "Reader",
    "28181": "Ready",
    "21713": "Real",
    "4789": "Rec",
    "10380": "Rece",
    "24131": "Receive",
    "29816": "Received",
    "22068": "Receiver",
    "23122": "Recogn",
    "27475": "Recognizer",
    "9182": "Record",
    "7364": "Rect",
    "9039": "Red",
    "24735": "Redirect",
    "5620": "Ref",
    "7422": "Reference",
    "27132": "Refresh",
    "4597": "Reg",
    "18457": "Region",
    "15213": "Register",
    "22579": "Registry",
    "9662": "Rel",
    "18278": "Relative",
    "26374": "RelativeLayout",
    "19729": "Release",
    "7301": "Rem",
    "20224": "Remote",
    "15941": "Remove",
    "10716": "Render",
    "21323": "Renderer",
    "5612": "Rep",
    "20083": "Replace",
    "13020": "Report",
    "10913": "Repos",
    "11481": "Repository",
    "3089": "Request",
    "19347": "Required",
    "1666": "Res",
    "27175": "Reset",
    "12375": "Resol",
    "19648": "Resolver",
    "6848": "Resource",
    "13770": "Resources",
    "5103": "Response",
    "15078": "Rest",
    "3591": "Result",
    "12191": "Results",
    "8015": "Ret",
    "11609": "Return",
    "25627": "Rich",
    "7341": "Right",
    "15607": "Rightarrow",
    "9588": "Ro",
    "21860": "Rob",
    "16727": "Role",
    "10303": "Root",
    "21281": "Rot",
    "24254": "Rout",
    "12085": "Route",
    "23971": "Router",
    "4301": "Row",
    "10661": "Rows",
    "10740": "Rule",
    "6558": "Run",
    "16802": "Runner",
    "27795": "Running",
    "7944": "Runtime",
    "23002": "Russ",
    "29903": "S",
    "8132": "SA",
    "1744": "SB",
    "1977": "SBN",
    "7187": "SC",
    "7230": "SD",
    "26912": "SDK",
    "1660": "SE",
    "22048": "SEE",
    "6404": "SELECT",
    "6304": "SER",
    "9938": "SERT",
    "18603": "SERVER",
    "17493": "SESSION",
    "10490": "SET",
    "29173": "SError",
    "20322": "SF",
    "26016": "SG",
    "7068": "SH",
    "23498": "SHA",
    "5425": "SI",
    "13381": "SION",
    "14226": "SIZE",
    "16033": "SK",
    "12750": "SL",
    "17061": "SM",
    "19296": "SN",
    "6156": "SO",
    "3094": "SON",
    "27839": "SOUR",
    "5550": "SP",
    "4176": "SQL",
    "14098": "SR",
    "1799": "SS",
    "13507": "SSION",
    "18641": "SSL",
    "13429": "SSN",
    "1254": "ST",
    "25826": "START",
    "17816": "STAT",
    "19713": "STATE",
    "27047": "STATUS",
    "10810": "STR",
    "20785": "STRING",
    "14605": "SU",
    "20633": "SUB",
    "25021": "SUM",
    "7597": "SV",
    "23066": "SW",
    "14816": "SY",
    "17618": "Sa",
    "22211": "Saint",
    "20392": "Sal",
    "22966": "Sam",
    "17708": "Sample",
    "22509": "San",
    "11371": "Save",
    "4421": "Sc",
    "29636": "Scal",
    "17185": "Scale",
    "29083": "Scan",
    "23472": "Scene",
    "4504": "Sch",
    "12763": "Schema",
    "15289": "Scope",
    "20097": "Score",
    "11357": "Screen",
    "4081": "Script",
    "10463": "Scroll",
    "28556": "ScrollView",
    "29019": "Sdk",
    "2008": "Se",
    "7974": "Search",
    "7898": "Sec",
    "11863": "Second",
    "27535": "Seconds",
    "28459": "Secret",
    "13438": "Section",
    "13228": "Security",
    "13393": "See",
    "17669": "Seg",
    "3549": "Select",
    "8592": "Selected",
    "15097": "Selection",
    "10378": "Selector",
    "24313": "Self",
    "28516": "Sem",
    "12600": "Send",
    "29615": "Sender",
    "23718": "Seq",
    "16941": "Sequ",
    "20529": "Sequence",
    "1748": "Ser",
    "9125": "Serial",
    "17679": "Serializer",
    "19204": "Series",
    "6889": "Serv",
    "6004": "Server",
    "3170": "Service",
    "13779": "Services",
    "10735": "Servlet",
    "7317": "Session",
    "2697": "Set",
    "22304": "Setter",
    "29020": "Setting",
    "9585": "Settings",
    "26947": "Setup",
    "2713": "Sh",
    "24111": "Shape",
    "21741": "Shared",
    "13468": "She",
    "10654": "Sheet",
    "16037": "Shell",
    "29657": "Shift",
    "21322": "Short",
    "26857": "Should",
    "8964": "Show",
    "25598": "Si",
    "23908": "Side",
    "28030": "Sidenote",
    "10142": "Sigma",
    "10140": "Sign",
    "26729": "Sil",
    "8942": "Sim",
    "15427": "Simple",
    "23036": "Since",
    "10873": "Sing",
    "15771": "Single",
    "17033": "Site",
    "28409": "Sito",
    "3505": "Size",
    "15797": "Sk",
    "16973": "Sl",
    "12636": "Sm",
    "29209": "Smith",
    "21913": "Snapshot",
    "6295": "So",
    "11373": "Socket",
    "13296": "Sol",
    "9526": "Some",
    "16804": "Something",
    "13685": "Sort",
    "29456": "Sound",
    "4435": "Source",
    "5592": "Sp",
    "14936": "Space",
    "15495": "Span",
    "10649": "Spe",
    "10299": "Spec",
    "24780": "Special",
    "26539": "Speed",
    "18772": "Split",
    "19634": "Spring",
    "10520": "Sql",
    "855": "St",
    "7264": "Stack",
    "15437": "StackTrace",
    "27276": "Stage",
    "11042": "Stand",
    "15449": "Standard",
    "16213": "Star",
    "4763": "Start",
    "9513": "Stat",
    "2792": "State",
    "14473": "Statement",
    "17046": "Static",
    "22814": "Station",
    "25060": "Stats",
    "5709": "Status",
    "7789": "Ste",
    "14448": "Step",
    "20754": "Sto",
    "16329": "Stop",
    "10486": "Storage",
    "9044": "Store",
    "29359": "Story",
    "5015": "Str",
    "26910": "Strategy",
    "3835": "Stream",
    "1231": "String",
    "26545": "Strings",
    "19560": "Struct",
    "20791": "Student",
    "28867": "Studio",
    "5568": "Style",
    "5091": "Su",
    "4035": "Sub",
    "20622": "Subject",
    "16228": "Submit",
    "26794": "Subview",
    "14191": "Success",
    "11139": "Sum",
    "26289": "Summary",
    "19111": "Super",
    "20182": "Supp",
    "14039": "Support",
    "18498": "Sur",
    "10840": "Sw",
    "24995": "Switch",
    "25548": "Sym",
    "14730": "Symbol",
    "29216": "Syn",
    "21077": "Sync",
    "16676": "Syntax",
    "3924": "System",
    "29911": "T",
    "6040": "TA",
    "21009": "TABLE",
    "8687": "TAC",
    "16881": "TAG",
    "24895": "TB",
    "9472": "TC",
    "24495": "TD",
    "4330": "TE",
    "4945": "TER",
    "18267": "TEST",
    "16975": "TEXT",
    "8969": "TF",
    "4690": "TH",
    "28350": "THE",
    "24301": "TI",
    "15307": "TIME",
    "14632": "TL",
    "23081": "TM",
    "4986": "TO",
    "3557": "TP",
    "5659": "TR",
    "26813": "TRAN",
    "20652": "TRUE",
    "9375": "TS",
    "19988": "TT",
    "8050": "TV",
    "16240": "TW",
    "28627": "TX",
    "15631": "TY",
    "11116": "TYPE",
    "8863": "Tab",
    "3562": "Table",
    "24924": "Tables",
    "8176": "Tag",
    "29269": "TagName",
    "28089": "Tags",
    "26772": "Take",
    "8667": "Target",
    "5398": "Task",
    "26249": "Tasks",
    "7141": "Te",
    "16644": "TeX",
    "19409": "Team",
    "5776": "Tem",
    "15637": "Temp",
    "6733": "Template",
    "14343": "Term",
    "3057": "Test",
    "24376": "Tests",
    "26887": "Tex",
    "1626": "Text",
    "15102": "TextBox",
    "15778": "TextField",
    "10607": "TextView",
    "21898": "Texture",
    "1349": "Th",
    "25271": "Thank",
    "16894": "Thanks",
    "7058": "That",
    "1576": "The",
    "17693": "Theme",
    "11760": "Then",
    "28831": "Theorem",
    "8439": "There",
    "17458": "Theta",
    "15597": "They",
    "4013": "This",
    "4899": "Thread",
    "23574": "ThreadPool",
    "28575": "Three",
    "29473": "Throw",
    "13711": "Tim",
    "2481": "Time",
    "10851": "Timeout",
    "14745": "Timer",
    "29164": "Times",
    "27939": "Timestamp",
    "7030": "Title",
    "1762": "To",
    "21254": "ToList",
    "8246": "ToString",
    "27199": "Toggle",
    "6066": "Token",
    "21599": "Tom",
    "12229": "Tool",
    "24183": "Tools",
    "7031": "Top",
    "11536": "Total",
    "15852": "Touch",
    "2308": "Tr",
    "5323": "Tra",
    "11591": "Trace",
    "17936": "Track",
    "4300": "Trans",
    "12460": "Transaction",
    "13372": "Transform",
    "27395": "Transport",
    "9643": "Tree",
    "29565": "Tri",
    "20211": "Trigger",
    "5574": "True",
    "15870": "Try",
    "23215": "Tu",
    "13425": "Tube",
    "27407": "Turn",
    "27418": "Tw",
    "13985": "Two",
    "21314": "Ty",
    "24933": "Typ",
    "1542": "Type",
    "10562": "Types",
    "29965": "U",
    "7466": "UB",
    "23129": "UC",
    "15789": "UD",
    "4462": "UE",
    "12996": "UES",
    "23338": "UG",
    "3120": "UI",
    "11150": "UID",
    "26200": "UIImage",
    "25282": "UILD",
    "23209": "UITableView",
    "26726": "UIView",
    "19960": "UK",
    "13309": "UL",
    "3299": "ULL",
    "8647": "ULT",
    "5005": "UM",
    "29127": "UMN",
    "3904": "UN",
    "28700": "UNCTION",
    "18783": "UND",
    "10356": "UNT",
    "4897": "UP",
    "14474": "UPDATE",
    "4574": "UR",
    "11499": "URE",
    "15551": "URI",
    "4219": "URL",
    "24015": "URN",
    "3308": "US",
    "27019": "USA",
    "17171": "USE",
    "11889": "USER",
    "17321": "UST",
    "2692": "UT",
    "26913": "UTC",
    "26027": "UTE",
    "10496": "UTF",
    "2525": "Un",
    "25263": "Und",
    "29177": "Under",
    "8110": "Uni",
    "19986": "Union",
    "11604": "Unis",
    "8325": "Unit",
    "11574": "Univers",
    "14148": "Unknown",
    "25807": "Uns",
    "3373": "Up",
    "6422": "Update",
    "29248": "Updated",
    "17553": "Upload",
    "26214": "Upper",
    "14702": "Uri",
    "5983": "Url",
    "15922": "Us",
    "27573": "Usage",
    "11403": "Use",
    "2659": "User",
    "28129": "UserName",
    "20249": "Username",
    "5959": "Users",
    "15156": "Using",
    "7270": "Util",
    "12177": "Utils",
    "29963": "V",
    "20449": "VA",
    "8932": "VAL",
    "26707": "VALID",
    "19143": "VALUE",
    "26865": "VAR",
    "24281": "VB",
    "8257": "VC",
    "10699": "VD",
    "12064": "VE",
    "5348": "VER",
    "16358": "VERSION",
    "24460": "VF",
    "18118": "VI",
    "19059": "VICE",
    "13044": "VID",
    "28607": "VIS",
    "9219": "VM",
    "24898": "VO",
    "18510": "VP",
    "21819": "VS",
    "1440": "Val",
    "7211": "Valid",
    "19448": "Validation",
    "24204": "Validator",
    "1917": "Value",
    "9065": "Values",
    "9037": "Var",
    "10444": "Vari",
    "16174": "Variable",
    "25987": "Vec",
    "12877": "Vector",
    "6565": "Ver",
    "22776": "Verlag",
    "6594": "Version",
    "9114": "Vert",
    "22479": "Vertex",
    "29270": "Vertical",
    "15167": "Video",
    "1043": "View",
    "9611": "ViewById",
    "6917": "ViewController",
    "25050": "ViewHolder",
    "15166": "ViewModel",
    "23825": "Views",
    "21287": "Virtual",
    "6116": "Vis",
    "23318": "Visibility",
    "12911": "Visible",
    "16227": "Visual",
    "13072": "Vol",
    "24679": "Volume",
    "14147": "Vor",
    "17576": "Vorlage",
    "29956": "W",
    "12982": "WA",
    "24668": "WD",
    "8851": "WE",
    "29686": "WF",
    "25039": "WH",
    "22043": "WHERE",
    "22119": "WI",
    "19292": "WID",
    "22574": "WIDTH",
    "25152": "WIN",
    "26735": "WM",
    "16048": "WN",
    "11686": "WOR",
    "17013": "WORD",
    "26433": "WP",
    "9980": "WR",
    "16365": "WRITE",
    "7811": "WS",
    "17755": "WT",
    "15716": "Wait",
    "22709": "Warning",
    "24709": "Watch",
    "4806": "We",
    "3609": "Web",
    "23237": "WebView",
    "24294": "Webachiv",
    "22606": "Week",
    "22676": "Weight",
    "28862": "Wel",
    "11284": "Well",
    "16128": "West",
    "8809": "Wh",
    "5618": "What",
    "10401": "When",
    "11921": "Where",
    "21823": "White",
    "22110": "Who",
    "11008": "Why",
    "8801": "Widget",
    "6110": "Width",
    "5653": "Wik",
    "7626": "Wikimedia",
    "24075": "Wikispecies",
    "29594": "Wil",
    "12984": "Will",
    "17734": "Win",
    "5907": "Window",
    "7685": "Windows",
    "3047": "With",
    "14463": "Word",
    "5531": "Work",
    "26501": "Workbook",
    "16164": "Worker",
    "14058": "World",
    "15646": "Wrapper",
    "6113": "Write",
    "11241": "WriteLine",
    "10507": "Writer",
    "29990": "X",
    "9165": "XML",
    "12188": "XT",
    "28462": "XV",
    "6247": "XX",
    "22791": "XXX",
    "19165": "XXXX",
    "18454": "XY",
    "11089": "Xml",
    "29979": "Y",
    "21143": "YES",
    "6959": "YPE",
    "21554": "YS",
    "14995": "YY",
    "12883": "Year",
    "8241": "Yes",
    "3492": "You",
    "10858": "Your",
    "29999": "Z",
    "10721": "ZE",
    "24625": "Ze",
    "24214": "Zero",
    "26264": "Zip",
    "18482": "Zone",
    "24433": "Zyg",
    "25104": "Zygote",
    "25587": "ZygoteInit",
    "29961": "[",
    "3366": "[\"",
    "8308": "[$",
    "1839": "['",
    "15625": "[(",
    "21939": "[,",
    "14352": "[-",
    "7503": "[:",
    "17548": "[@",
    "8999": "[[",
    "7110": "[\\",
    "2636": "[]",
    "23076": "[])",
    "24406": "[]{",
    "22896": "[^",
    "28513": "[_",
    "19660": "[{",
    "29905": "\\",
    "5931": "\\\"",
    "23370": "\\\",",
    "16203": "\\\":",
    "8958": "\\%",
    "20333": "\\'",
    "7244": "\\)",
    "29800": "\\).",
    "5940": "\\,",
    "15013": "\\,\\",
    "23301": "\\.",
    "25558": "\\/",
    "23891": "\\;",
    "4488": "\\<",
    "10553": "\\<^",
    "1966": "\\\\",
    "18899": "\\]",
    "20122": "\\_",
    "10045": "\\{",
    "24976": "\\{\\",
    "7893": "\\|",
    "22772": "\\|_{",
    "18105": "\\}",
    "11854": "\\}$",
    "28538": "\\}$,",
    "23699": "\\}$.",
    "25848": "\\}\\",
    "29962": "]",
    "18017": "]\"",
    "9341": "]$",
    "25473": "]$,",
    "22689": "]$.",
    "850": "](",
    "10514": "](#",
    "16733": "](#)",
    "26909": "](/",
    "2314": "])",
    "12622": "]))",
    "11724": "]),",
    "14664": "]).",
    "5691": "]);",
    "14178": "]*",
    "10062": "]+",
    "1402": "],",
    "16272": "],[",
    "28895": "]->",
    "1822": "].",
    "15555": "].[",
    "16261": "]/",
    "5387": "]:",
    "1385": "];",
    "13192": "]=",
    "24927": "]=\"",
    "3816": "][",
    "22322": "]['",
    "10725": "]\\",
    "5262": "]]",
    "24960": "]])",
    "20526": "]],",
    "19942": "]];",
    "21540": "]_",
    "7961": "]`",
    "27865": "]`.",
    "3199": "]{",
    "27706": "]{'",
    "21545": "]{\\",
    "12258": "]}",
    "29985": "^",
    "23733": "^(",
    "6622": "^*",
    "14747": "^+",
    "21583": "^-",
    "3823": "^\\",
    "16672": "^^",
    "998": "^{",
    "7650": "^{(",
    "27587": "^{+",
    "3426": "^{-",
    "17783": "^{-\\",
    "3311": "^{\\",
    "29918": "_",
    "27508": "_\"",
    "23538": "_(",
    "19925": "_)",
    "24563": "_*",
    "28842": "_+",
    "3383": "_,",
    "5396": "_.",
    "16141": "_;",
    "3187": "_\\",
    "1649": "__",
    "12035": "__(",
    "26914": "__.",
    "22359": "___",
    "7652": "____",
    "14365": "________",
    "27097": "________________",
    "648": "_{",
    "20862": "_{(",
    "22631": "_{-",
    "1665": "_{\\",
    "24033": "_{{\\",
    "29952": "`",
    "20497": "`'",
    "6348": "`)",
    "19775": "`),",
    "12913": "`).",
    "1673": "`,",
    "27969": "`-",
    "1412": "`.",
    "27870": "`.`",
    "6998": "`:",
    "21966": "`;",
    "6522": "`?",
    "7072": "`](",
    "16159": "``",
    "28956": "```",
    "26357": "`}",
    "29874": "a",
    "7340": "aa",
    "27137": "aaaa",
    "16113": "aal",
    "4025": "aar",
    "370": "ab",
    "5363": "aba",
    "20143": "abad",
    "23758": "abama",
    "10910": "aban",
    "1733": "abase",
    "8846": "abb",
    "10736": "abc",
    "4302": "abe",
    "12410": "abei",
    "1107": "abel",
    "24025": "abeled",
    "12792": "aben",
    "17916": "abestanden",
    "13176": "abet",
    "9394": "abeth",
    "27203": "abgerufen",
    "28775": "abh\u00e4ng",
    "19266": "abi",
    "4427": "abil",
    "18119": "abile",
    "11614": "abilities",
    "3097": "ability",
    "12478": "abl",
    "519": "able",
    "3606": "abled",
    "1849": "ables",
    "17961": "abling",
    "17877": "ablo",
    "2197": "ably",
    "19388": "abol",
    "3717": "abor",
    "24430": "abord",
    "12717": "about",
    "27215": "above",
    "6897": "abs",
    "23552": "absolute",
    "16595": "abstract",
    "10798": "aby",
    "562": "ac",
    "11989": "aca",
    "5753": "acc",
    "16044": "accept",
    "5943": "access",
    "21566": "acci",
    "17970": "acco",
    "10149": "account",
    "815": "ace",
    "14149": "aceae",
    "16648": "acent",
    "3302": "aces",
    "496": "ach",
    "1829": "ache",
    "3791": "ached",
    "18762": "achen",
    "11665": "acher",
    "14520": "aches",
    "26213": "achi",
    "24039": "achim",
    "2945": "achine",
    "9733": "aching",
    "24184": "achiv",
    "25117": "achment",
    "14145": "achsen",
    "5860": "acht",
    "15404": "achusetts",
    "18703": "aci",
    "20323": "acia",
    "9390": "acing",
    "16337": "acion",
    "4264": "acional",
    "6027": "aciones",
    "17249": "acions",
    "5946": "acity",
    "12076": "aci\u00f3",
    "2709": "aci\u00f3n",
    "15260": "acja",
    "28322": "acje",
    "8330": "acji",
    "29357": "acj\u0119",
    "547": "ack",
    "2229": "ackage",
    "28940": "acker",
    "26514": "acks",
    "6436": "acle",
    "23435": "acles",
    "11216": "aco",
    "23074": "acon",
    "21160": "acre",
    "16815": "acs",
    "627": "act",
    "5761": "acter",
    "21706": "acters",
    "17911": "actic",
    "2467": "action",
    "7387": "actions",
    "11236": "activ",
    "4925": "active",
    "10072": "activity",
    "23617": "actly",
    "7168": "actor",
    "3832": "actory",
    "19304": "actual",
    "16027": "act\u00e9r",
    "23096": "act\u00e9ristiques",
    "22061": "acu",
    "4135": "acy",
    "21469": "acyj",
    "10086": "acz",
    "29028": "ac\u00ed",
    "328": "ad",
    "1114": "ada",
    "27283": "adal",
    "22536": "adamente",
    "21412": "adapter",
    "3922": "adas",
    "7221": "adata",
    "1202": "add",
    "20213": "addClass",
    "16592": "addEventListener",
    "23959": "added",
    "4676": "adding",
    "22352": "addle",
    "10030": "addr",
    "7328": "address",
    "25644": "addy",
    "1943": "ade",
    "11932": "aded",
    "11165": "adel",
    "18401": "adem",
    "4858": "aden",
    "1664": "ader",
    "24574": "aders",
    "3076": "ades",
    "21754": "adesh",
    "10129": "adi",
    "26538": "adic",
    "28214": "adin",
    "9382": "ading",
    "26859": "adj",
    "6406": "admin",
    "912": "ado",
    "18079": "adoop",
    "3136": "ador",
    "15441": "adora",
    "7447": "adores",
    "24549": "adors",
    "2255": "ados",
    "6986": "adow",
    "23626": "adows",
    "7887": "adr",
    "16181": "adrat",
    "20696": "adratkil",
    "21088": "adratkilometer",
    "7151": "adre",
    "7925": "ads",
    "3590": "adt",
    "13467": "adu",
    "17263": "adv",
    "3714": "ady",
    "15335": "ad\u00e9m",
    "24851": "ad\u00e9mie",
    "26709": "ad\u00f3",
    "3660": "ae",
    "4271": "ael",
    "28628": "aes",
    "2142": "af",
    "24088": "afen",
    "3470": "aff",
    "19593": "affen",
    "20817": "afka",
    "2051": "aft",
    "7045": "after",
    "28059": "af\u00e9",
    "351": "ag",
    "7781": "aga",
    "18939": "agan",
    "28641": "agar",
    "26712": "agas",
    "482": "age",
    "4063": "aged",
    "13904": "agem",
    "5049": "agement",
    "5370": "agen",
    "25935": "agens",
    "14748": "agent",
    "1875": "ager",
    "18150": "agers",
    "1179": "ages",
    "26084": "aget",
    "16170": "agg",
    "9921": "agger",
    "15424": "aggi",
    "10044": "aggio",
    "26193": "aggreg",
    "21705": "agh",
    "17698": "agi",
    "26584": "agin",
    "22094": "agine",
    "6751": "aging",
    "11342": "agini",
    "23121": "agit",
    "20860": "agle",
    "27273": "agli",
    "17474": "aglia",
    "4211": "agn",
    "15713": "agna",
    "5889": "agne",
    "18303": "agner",
    "22414": "agnet",
    "11670": "agnost",
    "21780": "agnostic",
    "20921": "agnostics",
    "4425": "ago",
    "13247": "agog",
    "12841": "agon",
    "10312": "agr",
    "14442": "agram",
    "29592": "agrant",
    "9895": "agraph",
    "810": "ags",
    "21416": "agt",
    "10617": "agu",
    "29296": "agua",
    "3437": "ague",
    "21628": "agues",
    "6485": "agy",
    "27913": "agyar",
    "801": "ah",
    "25613": "aha",
    "4494": "ahl",
    "17165": "ahlen",
    "5422": "ahn",
    "29745": "aho",
    "26779": "ahoo",
    "5610": "ahr",
    "21446": "ahren",
    "29017": "ahu",
    "1794": "ai",
    "10978": "aient",
    "8729": "aign",
    "737": "ail",
    "3106": "ailable",
    "26517": "ailand",
    "8284": "aille",
    "2234": "ails",
    "8683": "aily",
    "475": "ain",
    "9874": "aine",
    "7114": "ained",
    "4008": "ainer",
    "13116": "aines",
    "17225": "aining",
    "2708": "ains",
    "2365": "aint",
    "1466": "air",
    "5218": "aire",
    "7147": "aires",
    "26025": "airo",
    "7121": "airs",
    "1759": "ais",
    "8376": "aison",
    "1249": "ait",
    "1175": "aj",
    "9919": "aja",
    "6538": "ajax",
    "8339": "aje",
    "23823": "ajes",
    "21552": "ajn",
    "7069": "ajo",
    "19337": "aju",
    "8480": "aj\u0105",
    "20904": "aj\u0105c",
    "557": "ak",
    "8245": "aka",
    "1296": "ake",
    "12535": "aked",
    "9424": "aken",
    "5790": "aker",
    "21079": "akers",
    "6926": "akes",
    "21273": "akespe",
    "19426": "akh",
    "9940": "aki",
    "5086": "aking",
    "4614": "ako",
    "27695": "akov",
    "10327": "aks",
    "5867": "akt",
    "17230": "akte",
    "14266": "akter",
    "16774": "aku",
    "26189": "akult",
    "284": "al",
    "2883": "ala",
    "11627": "aland",
    "10336": "album",
    "2741": "ald",
    "744": "ale",
    "7943": "aled",
    "12698": "alem",
    "6311": "alement",
    "10066": "alen",
    "18362": "aler",
    "12888": "alert",
    "2122": "ales",
    "9457": "alet",
    "26456": "alette",
    "19272": "ale\u017c",
    "3131": "alf",
    "9564": "alg",
    "15742": "algebra",
    "20567": "algorithm",
    "2606": "ali",
    "19627": "alia",
    "19973": "alias",
    "2520": "align",
    "13671": "aligned",
    "25977": "alin",
    "12818": "aling",
    "20235": "alion",
    "5711": "alis",
    "2877": "ality",
    "2235": "alk",
    "497": "all",
    "9864": "alla",
    "15892": "allas",
    "3498": "alle",
    "4212": "alled",
    "6553": "allel",
    "5442": "allen",
    "16047": "alleng",
    "11768": "allenge",
    "12572": "aller",
    "23365": "allery",
    "26493": "alles",
    "27855": "alling",
    "26177": "allo",
    "15956": "alloc",
    "9536": "allow",
    "24622": "allowed",
    "4293": "alls",
    "635": "ally",
    "17120": "alm",
    "7003": "alo",
    "27330": "alog",
    "17419": "alom",
    "18785": "alone",
    "20521": "alous",
    "19712": "alph",
    "2312": "alpha",
    "1338": "als",
    "1435": "alse",
    "15189": "also",
    "1997": "alt",
    "13794": "alter",
    "26123": "altern",
    "4298": "alth",
    "26492": "although",
    "24079": "altra",
    "27740": "altung",
    "18745": "alty",
    "22349": "alu",
    "28716": "alus",
    "21936": "always",
    "14997": "aly",
    "314": "am",
    "3304": "ama",
    "13533": "aman",
    "8715": "amar",
    "18257": "amarin",
    "17260": "amazon",
    "1117": "amb",
    "20027": "amba",
    "2269": "ambda",
    "14727": "ambigu",
    "18065": "ambiguation",
    "22490": "amd",
    "420": "ame",
    "2795": "amed",
    "5071": "amen",
    "1166": "ament",
    "11491": "amental",
    "2503": "amente",
    "6533": "amenti",
    "4487": "amento",
    "26376": "amentos",
    "20060": "aments",
    "4183": "amer",
    "11596": "amerikan",
    "17996": "amerikanischer",
    "1280": "ames",
    "4479": "ami",
    "9993": "amiento",
    "1344": "amil",
    "11348": "amilton",
    "9103": "amin",
    "11500": "aming",
    "8807": "aml",
    "4850": "amm",
    "2735": "amma",
    "28913": "ammed",
    "7667": "ammen",
    "10460": "amment",
    "28527": "ammer",
    "10178": "amo",
    "14054": "amos",
    "14506": "amount",
    "27419": "amour",
    "1160": "amp",
    "20056": "ampa",
    "16817": "ampf",
    "22674": "ampio",
    "3103": "ampion",
    "981": "ample",
    "9422": "amples",
    "15092": "amps",
    "2232": "ams",
    "28935": "amsung",
    "8035": "amt",
    "25934": "amy",
    "273": "an",
    "1648": "ana",
    "7054": "anal",
    "24209": "analy",
    "15916": "analysis",
    "16397": "anas",
    "4564": "anc",
    "749": "ance",
    "8362": "anced",
    "27967": "ancement",
    "25856": "ancer",
    "2925": "ances",
    "14588": "anch",
    "20372": "anche",
    "25367": "anchor",
    "8463": "anci",
    "14006": "ancia",
    "19985": "ancing",
    "29711": "ancouver",
    "6906": "ancy",
    "392": "and",
    "5863": "anda",
    "24258": "andal",
    "7086": "andas",
    "26738": "andbox",
    "4182": "ande",
    "7257": "anden",
    "24096": "andenburg",
    "3825": "ander",
    "5380": "andid",
    "23922": "andis",
    "1743": "ando",
    "2685": "andom",
    "9214": "andon",
    "27177": "andr",
    "10738": "andra",
    "14907": "andro",
    "2843": "android",
    "4167": "ands",
    "13910": "andy",
    "1662": "ane",
    "3870": "anel",
    "23584": "aneous",
    "17297": "anes",
    "574": "ang",
    "12686": "anga",
    "927": "ange",
    "4618": "anged",
    "9477": "angel",
    "12644": "angen",
    "4600": "anger",
    "13873": "angers",
    "6916": "anges",
    "9776": "anging",
    "2521": "angle",
    "19536": "angles",
    "4524": "ango",
    "21461": "angol",
    "25128": "angs",
    "2375": "angu",
    "3000": "anguage",
    "8737": "anguages",
    "6825": "angular",
    "27731": "anh",
    "29014": "anha",
    "3270": "ani",
    "4807": "ania",
    "6067": "anie",
    "11576": "anim",
    "20131": "animate",
    "18962": "animation",
    "18467": "aniu",
    "23565": "anja",
    "16754": "anje",
    "804": "ank",
    "18330": "anka",
    "1331": "anks",
    "812": "ann",
    "9713": "anna",
    "11276": "anne",
    "11310": "anned",
    "4143": "annel",
    "12629": "annels",
    "7310": "anner",
    "22393": "annes",
    "9889": "anni",
    "9450": "anning",
    "7665": "anno",
    "23453": "annon",
    "6735": "annot",
    "18317": "annotation",
    "5805": "annt",
    "16383": "annte",
    "27109": "annten",
    "14763": "anny",
    "18704": "ann\u00e9e",
    "1562": "ano",
    "19930": "anon",
    "25772": "anonymous",
    "16469": "anos",
    "23327": "another",
    "550": "ans",
    "13353": "ansas",
    "12350": "anse",
    "29401": "ansen",
    "9454": "ansion",
    "12190": "ansk",
    "19041": "anska",
    "16307": "anson",
    "16220": "anst",
    "22439": "anstalt",
    "12011": "answer",
    "424": "ant",
    "6949": "anta",
    "8501": "antage",
    "19771": "antages",
    "17978": "antal",
    "1647": "ante",
    "9714": "anted",
    "10204": "anten",
    "14623": "anter",
    "27166": "anterie",
    "3794": "antes",
    "9716": "anth",
    "3656": "anti",
    "7716": "antic",
    "22614": "antics",
    "13027": "antin",
    "20578": "antine",
    "10835": "antly",
    "5361": "anto",
    "15762": "antom",
    "11960": "anton",
    "15328": "antry",
    "1934": "ants",
    "15623": "anu",
    "24514": "anus",
    "1384": "any",
    "20912": "anya",
    "19442": "anych",
    "4096": "anz",
    "8520": "anza",
    "22668": "anze",
    "25611": "anzen",
    "25356": "an\u00e7a",
    "6241": "ao",
    "481": "ap",
    "14274": "apa",
    "4288": "apache",
    "21419": "apan",
    "26347": "apat",
    "4085": "ape",
    "10501": "aped",
    "7202": "aper",
    "21321": "apers",
    "11603": "apes",
    "13198": "apest",
    "12451": "aph",
    "2754": "api",
    "21430": "aping",
    "11355": "apis",
    "16681": "apk",
    "25332": "apolis",
    "26191": "apor",
    "932": "app",
    "8055": "appa",
    "29065": "appe",
    "17280": "apped",
    "19934": "appen",
    "4397": "append",
    "23850": "appendChild",
    "23239": "apper",
    "20304": "apping",
    "11548": "apple",
    "6214": "application",
    "7302": "apply",
    "9961": "appro",
    "14850": "approx",
    "13371": "apps",
    "14862": "appy",
    "19908": "apr\u00e8s",
    "2547": "aps",
    "28170": "apsed",
    "2156": "apt",
    "3314": "apter",
    "27580": "apy",
    "18463": "aqu",
    "19772": "aque",
    "279": "ar",
    "2518": "ara",
    "25822": "arab",
    "11269": "aram",
    "23029": "aran",
    "9519": "arante",
    "23536": "arbe",
    "15564": "arbeit",
    "5666": "arc",
    "23372": "arca",
    "1279": "arch",
    "20523": "archar",
    "25428": "architecture",
    "24121": "archiv",
    "10867": "archive",
    "21721": "archivi",
    "21858": "archiviato",
    "12040": "archy",
    "27014": "arct",
    "538": "ard",
    "23144": "arda",
    "19755": "arde",
    "25600": "arded",
    "7879": "arden",
    "18015": "ardi",
    "21473": "ardin",
    "20272": "arding",
    "6491": "ardo",
    "20342": "ardon",
    "3163": "ards",
    "598": "are",
    "6203": "area",
    "1965": "ared",
    "17243": "arel",
    "8326": "aren",
    "5114": "ares",
    "10474": "aret",
    "29293": "arf",
    "1191": "arg",
    "21899": "arga",
    "23641": "argent",
    "2097": "arget",
    "3930": "argin",
    "7921": "argo",
    "5085": "args",
    "23516": "argument",
    "25699": "arguments",
    "19218": "argv",
    "1306": "ari",
    "4568": "aria",
    "27521": "arial",
    "13956": "arian",
    "20225": "arias",
    "29294": "ariat",
    "19380": "arie",
    "4314": "aries",
    "6275": "arily",
    "27139": "arin",
    "23558": "arina",
    "4362": "aring",
    "2628": "ario",
    "8596": "arios",
    "12260": "aris",
    "23830": "arith",
    "22826": "arium",
    "19563": "arius",
    "935": "ark",
    "17862": "arks",
    "22431": "arlo",
    "2817": "arm",
    "22824": "arma",
    "22413": "arm\u00e9e",
    "2753": "arn",
    "11441": "arna",
    "5699": "arning",
    "8854": "aro",
    "11160": "arod",
    "5022": "aron",
    "14408": "arono",
    "11316": "around",
    "6834": "arp",
    "19862": "arqu",
    "2749": "arr",
    "2378": "array",
    "23693": "arring",
    "29458": "arrison",
    "2936": "arrow",
    "1503": "ars",
    "7989": "arse",
    "16665": "arsi",
    "442": "art",
    "16979": "arta",
    "11908": "arte",
    "8109": "arten",
    "4254": "arter",
    "13868": "arters",
    "28696": "arth",
    "7914": "article",
    "18569": "articles",
    "8813": "artifact",
    "9680": "artifactId",
    "22171": "arto",
    "5708": "arts",
    "18071": "aru",
    "26465": "arus",
    "653": "ary",
    "11129": "arz",
    "20484": "ar\u00e1",
    "18429": "ar\u00eda",
    "294": "as",
    "11290": "asa",
    "13186": "asant",
    "6151": "asc",
    "559": "ase",
    "1463": "ased",
    "29440": "aser",
    "2129": "ases",
    "24541": "aset",
    "1161": "ash",
    "26840": "asha",
    "25936": "ashed",
    "18321": "ashi",
    "7321": "ashington",
    "10904": "ashion",
    "6840": "asi",
    "26252": "asia",
    "5832": "asing",
    "7002": "asion",
    "25101": "asis",
    "1278": "ask",
    "16191": "aska",
    "21918": "askell",
    "7896": "asket",
    "11852": "asketball",
    "11625": "asm",
    "25392": "asma",
    "17764": "aso",
    "1658": "ason",
    "7040": "asons",
    "4692": "asp",
    "6307": "aspx",
    "465": "ass",
    "24573": "assa",
    "28760": "assador",
    "5793": "asse",
    "26936": "assembly",
    "11257": "assen",
    "9498": "asser",
    "9294": "assert",
    "24129": "asset",
    "16596": "assets",
    "16645": "assign",
    "9979": "asso",
    "21011": "assoc",
    "21264": "associ",
    "579": "ast",
    "5427": "asta",
    "4350": "aste",
    "28470": "asted",
    "1901": "aster",
    "11530": "astern",
    "6288": "astic",
    "20291": "asticsearch",
    "24186": "asto",
    "7614": "astr",
    "23364": "astro",
    "19416": "asts",
    "3745": "asure",
    "25414": "asures",
    "8995": "asy",
    "12674": "async",
    "12617": "asz",
    "19812": "aszt",
    "271": "at",
    "532": "ata",
    "3223": "atabase",
    "17219": "atable",
    "2075": "atal",
    "3968": "atalog",
    "23402": "atan",
    "14873": "atar",
    "905": "atch",
    "403": "ate",
    "630": "ated",
    "22279": "ateful",
    "1845": "ateg",
    "20440": "ategor",
    "14404": "ategories",
    "3326": "ategory",
    "8963": "ategy",
    "12472": "ateien",
    "14830": "atel",
    "2486": "ately",
    "17533": "atem",
    "2579": "aten",
    "1008": "ater",
    "3795": "aterial",
    "25744": "atern",
    "27361": "aterra",
    "10412": "aters",
    "1078": "ates",
    "7289": "ateur",
    "14075": "ateurs",
    "5564": "atever",
    "4585": "atform",
    "26775": "atge",
    "493": "ath",
    "11385": "athan",
    "14139": "athed",
    "21471": "athedral",
    "1624": "ather",
    "16490": "atherine",
    "19467": "athers",
    "6347": "athol",
    "10047": "atholic",
    "25206": "athon",
    "2219": "ati",
    "28752": "atia",
    "15238": "atial",
    "2454": "atic",
    "29288": "atica",
    "19574": "atically",
    "9474": "atie",
    "24701": "atience",
    "29375": "aties",
    "25572": "atif",
    "24285": "atile",
    "21203": "atin",
    "1218": "ating",
    "20819": "atio",
    "362": "ation",
    "1288": "ational",
    "11464": "ationale",
    "15768": "ationen",
    "800": "ations",
    "15819": "atique",
    "19669": "atiques",
    "18792": "atis",
    "27685": "atisf",
    "1926": "ativ",
    "8657": "ativa",
    "26126": "ativas",
    "1230": "ative",
    "6703": "atively",
    "5056": "atives",
    "28157": "ativity",
    "11692": "ativo",
    "29002": "ativos",
    "1219": "ato",
    "20452": "atoes",
    "20141": "atoire",
    "14947": "atol",
    "8678": "atom",
    "21641": "atomic",
    "14114": "aton",
    "1061": "ator",
    "6082": "atore",
    "11168": "atori",
    "24737": "atorial",
    "21392": "atorio",
    "4097": "ators",
    "7606": "atory",
    "4507": "atos",
    "8141": "atr",
    "16546": "atra",
    "6064": "atre",
    "25054": "atri",
    "17417": "atrice",
    "7816": "atro",
    "1446": "ats",
    "1131": "att",
    "14975": "atta",
    "14930": "attach",
    "23586": "attan",
    "15127": "atte",
    "19667": "atted",
    "8606": "atten",
    "27601": "attend",
    "2620": "atter",
    "11556": "atti",
    "19704": "attice",
    "23980": "atting",
    "5315": "attle",
    "16234": "atto",
    "5552": "attr",
    "12715": "attribute",
    "15697": "attributes",
    "19114": "attro",
    "24758": "attung",
    "8088": "atu",
    "21048": "atum",
    "1337": "atur",
    "7969": "atura",
    "18771": "atural",
    "20510": "aturday",
    "1535": "ature",
    "14101": "aturen",
    "3698": "atures",
    "19021": "aturing",
    "2389": "atus",
    "24997": "atuur",
    "11156": "aty",
    "23179": "atype",
    "4101": "atz",
    "20062": "at\u00f3",
    "13804": "at\u0103",
    "585": "au",
    "14766": "auc",
    "13989": "auch",
    "20168": "aucoup",
    "15052": "aud",
    "28863": "audi",
    "18494": "audio",
    "7547": "auer",
    "4987": "auf",
    "28411": "auff",
    "2987": "aug",
    "6334": "augh",
    "6482": "aught",
    "1292": "ault",
    "25330": "aum",
    "7479": "aupt",
    "6698": "aur",
    "1485": "aus",
    "1071": "ause",
    "15244": "aused",
    "11214": "auss",
    "17019": "aussian",
    "1300": "aut",
    "5150": "auth",
    "27218": "authentic",
    "23055": "authentication",
    "8921": "author",
    "6921": "auto",
    "17405": "autom",
    "8309": "autor",
    "28629": "autore",
    "11074": "autorit\u00e9",
    "18288": "autre",
    "14559": "autres",
    "18560": "aut\u00e9",
    "2993": "aux",
    "485": "av",
    "879": "ava",
    "16515": "available",
    "23071": "avait",
    "7712": "aval",
    "25599": "avam",
    "29080": "avan",
    "21310": "avano",
    "26608": "avant",
    "2449": "avas",
    "2516": "avascript",
    "1351": "ave",
    "10511": "aved",
    "6447": "avel",
    "3496": "aven",
    "12483": "aver",
    "5989": "aves",
    "17345": "avi",
    "12751": "avia",
    "16093": "avid",
    "18852": "avier",
    "3723": "avig",
    "5437": "avigation",
    "25521": "avigator",
    "5555": "aving",
    "27082": "avo",
    "28619": "avoir",
    "17118": "avor",
    "5301": "avy",
    "1450": "aw",
    "10011": "awa",
    "20675": "await",
    "28327": "aware",
    "21694": "away",
    "20011": "awk",
    "18101": "awn",
    "10467": "aws",
    "17338": "awt",
    "1165": "ax",
    "20593": "axi",
    "8990": "axis",
    "26825": "axy",
    "388": "ay",
    "9010": "aya",
    "15802": "aye",
    "2747": "ayer",
    "11017": "aylor",
    "1534": "ayout",
    "1036": "ays",
    "834": "az",
    "19924": "aza",
    "28690": "azar",
    "28334": "aze",
    "18861": "azi",
    "8985": "azine",
    "24916": "azionale",
    "3343": "azione",
    "8312": "azioni",
    "10131": "azon",
    "13581": "azu",
    "17688": "azure",
    "24683": "azy",
    "7511": "azz",
    "16594": "azzo",
    "26037": "az\u0103",
    "8298": "a\u00e7\u00e3o",
    "25463": "a\u00e7\u00f5es",
    "5259": "a\u00f1",
    "9244": "a\u00f1a",
    "2275": "a\u0142",
    "13565": "a\u0142a",
    "17034": "a\u0142o",
    "21816": "a\u0142y",
    "29890": "b",
    "2291": "ba",
    "26934": "baar",
    "28727": "babel",
    "14815": "bably",
    "6740": "bach",
    "1627": "back",
    "27852": "backend",
    "7042": "background",
    "29605": "backgroundColor",
    "12313": "bad",
    "23156": "bag",
    "17807": "bage",
    "28758": "bah",
    "11121": "bahn",
    "5521": "bal",
    "2135": "ball",
    "2571": "ban",
    "4980": "band",
    "9157": "bank",
    "1646": "bar",
    "13839": "bara",
    "18354": "bare",
    "28408": "bars",
    "6500": "bas",
    "3188": "base",
    "6707": "based",
    "13067": "bash",
    "16121": "basic",
    "10222": "bat",
    "16175": "batch",
    "9738": "bau",
    "29602": "baum",
    "26312": "baut",
    "27495": "bay",
    "27975": "baz",
    "1327": "bb",
    "9967": "bbe",
    "15137": "bben",
    "14663": "bbi",
    "12328": "bc",
    "6448": "bd",
    "915": "be",
    "14471": "bean",
    "11700": "beans",
    "19385": "bec",
    "18103": "because",
    "19645": "beck",
    "2580": "bed",
    "26366": "beeld",
    "11083": "before",
    "28060": "beg",
    "463": "begin",
    "27242": "bei",
    "6205": "beit",
    "16863": "bek",
    "6596": "bel",
    "12562": "bell",
    "22503": "below",
    "1785": "ben",
    "495": "ber",
    "13167": "bere",
    "27915": "bereich",
    "2552": "berg",
    "17494": "berga",
    "15734": "berger",
    "5892": "bern",
    "7549": "bernate",
    "19765": "bero",
    "16344": "berry",
    "2596": "bers",
    "2151": "bert",
    "19954": "berta",
    "9858": "berto",
    "23418": "berts",
    "5707": "bes",
    "23787": "besondere",
    "13318": "best",
    "6878": "bet",
    "3571": "beta",
    "14811": "between",
    "21761": "bew",
    "22072": "bey",
    "15325": "bez",
    "1635": "bf",
    "16264": "bg",
    "5365": "bi",
    "15959": "bia",
    "22863": "bian",
    "18508": "bib",
    "17481": "bibli",
    "24275": "bibliothek",
    "23883": "bid",
    "10993": "bie",
    "3752": "big",
    "17633": "bigg",
    "19352": "bij",
    "18152": "bil",
    "10271": "bild",
    "20541": "bildung",
    "2109": "bin",
    "19541": "binary",
    "5355": "bind",
    "19672": "binding",
    "25988": "bindung",
    "26062": "bine",
    "10549": "bing",
    "16183": "binom",
    "24840": "bio",
    "20397": "bir",
    "18513": "bird",
    "18809": "bis",
    "28693": "bishop",
    "2966": "bit",
    "8844": "bitr",
    "14836": "bits",
    "18706": "bi\u00f3",
    "1675": "bject",
    "2204": "bl",
    "17530": "bla",
    "8517": "black",
    "29844": "blah",
    "19465": "blank",
    "23190": "blast",
    "22801": "blatt",
    "569": "ble",
    "27225": "bled",
    "1031": "blem",
    "7586": "bles",
    "4729": "blic",
    "26827": "blica",
    "21435": "bling",
    "14073": "blo",
    "10054": "blob",
    "1271": "block",
    "1443": "blockquote",
    "7312": "blog",
    "25762": "blogs",
    "9539": "blue",
    "5838": "bm",
    "14324": "bmatrix",
    "11197": "bn",
    "833": "bo",
    "17801": "boBox",
    "28954": "boa",
    "3377": "board",
    "24691": "boards",
    "2587": "body",
    "2095": "bol",
    "8934": "bold",
    "16751": "boldmath",
    "5911": "bolds",
    "5916": "boldsymbol",
    "6718": "bon",
    "15933": "bone",
    "2909": "book",
    "12733": "books",
    "11227": "bool",
    "20054": "boolean",
    "17079": "boost",
    "4777": "boot",
    "8704": "bootstrap",
    "4089": "bor",
    "11466": "border",
    "14203": "borg",
    "4939": "born",
    "22187": "borough",
    "27737": "bos",
    "15828": "bose",
    "7451": "bot",
    "20313": "both",
    "8968": "bottom",
    "9917": "bound",
    "29306": "bounded",
    "23687": "bounds",
    "6526": "bour",
    "17247": "bourg",
    "17418": "bourne",
    "29205": "bove",
    "17729": "bow",
    "1884": "box",
    "19415": "boy",
    "25288": "bp",
    "1182": "br",
    "2634": "bra",
    "13842": "brace",
    "29705": "brains",
    "18206": "braio",
    "17519": "branch",
    "16472": "brand",
    "8464": "braries",
    "2456": "brary",
    "15863": "bras",
    "1030": "bre",
    "8690": "break",
    "16105": "bres",
    "19515": "brid",
    "18419": "bridge",
    "23747": "brie",
    "26549": "brit",
    "6729": "bro",
    "23721": "brow",
    "15965": "browser",
    "16670": "bru",
    "21437": "br\u00e1z",
    "23117": "br\u00e1zky",
    "5824": "bs",
    "7891": "bst",
    "3116": "bt",
    "7290": "btn",
    "2423": "bu",
    "8458": "buch",
    "21454": "bucket",
    "15841": "bud",
    "9721": "buf",
    "28040": "buff",
    "9040": "buffer",
    "6152": "bug",
    "4282": "build",
    "16409": "builder",
    "25237": "building",
    "16145": "built",
    "8645": "bul",
    "18850": "bullet",
    "2404": "bum",
    "16293": "bund",
    "16718": "bundle",
    "6037": "buntu",
    "8399": "bur",
    "3074": "burg",
    "21619": "burger",
    "13903": "burgh",
    "28980": "burgo",
    "18712": "burn",
    "11059": "bury",
    "8262": "bus",
    "4187": "but",
    "3092": "button",
    "1609": "by",
    "26966": "bye",
    "10389": "byte",
    "13193": "bytes",
    "26976": "b\u00f3l",
    "28252": "b\u00fc",
    "27950": "b\u011b",
    "29883": "c",
    "1113": "ca",
    "8173": "cache",
    "6332": "cade",
    "9431": "cadem",
    "9567": "cademy",
    "1052": "cal",
    "9256": "cala",
    "28667": "calc",
    "15807": "calcul",
    "23392": "calendar",
    "4804": "call",
    "14035": "callback",
    "13998": "called",
    "11108": "cam",
    "26065": "camera",
    "24821": "camp",
    "3068": "can",
    "20713": "cancel",
    "26004": "cano",
    "15257": "canvas",
    "5030": "cap",
    "5738": "cape",
    "17885": "capt",
    "6671": "caption",
    "4287": "car",
    "7543": "card",
    "28160": "cards",
    "18020": "care",
    "13823": "cart",
    "9398": "cas",
    "4878": "case",
    "11436": "cases",
    "4384": "cast",
    "27193": "castle",
    "4117": "cat",
    "16431": "catal",
    "17850": "catalina",
    "28045": "catalog",
    "12510": "catch",
    "20683": "categories",
    "7320": "category",
    "9252": "cation",
    "24348": "caught",
    "10702": "cb",
    "617": "cc",
    "17630": "cca",
    "26854": "ccc",
    "1676": "ccess",
    "22643": "ccion",
    "14980": "cciones",
    "19103": "cci\u00f3",
    "6941": "cci\u00f3n",
    "26454": "cco",
    "2252": "cd",
    "13687": "cdn",
    "29062": "cdnjs",
    "3822": "cdot",
    "9572": "cdots",
    "346": "ce",
    "23062": "ceae",
    "11956": "cean",
    "1133": "ced",
    "28352": "cedes",
    "26600": "cedure",
    "3947": "ceed",
    "27991": "cego",
    "27696": "ceil",
    "24213": "cej",
    "2242": "cel",
    "3729": "cell",
    "22603": "cellation",
    "19335": "cem",
    "13561": "cement",
    "10278": "cen",
    "1760": "cent",
    "21450": "cente",
    "5064": "center",
    "9525": "centering",
    "25171": "central",
    "27371": "century",
    "13300": "cep",
    "1547": "cept",
    "1441": "ception",
    "14268": "ceptor",
    "2265": "cer",
    "23322": "cera",
    "22543": "cers",
    "6327": "cert",
    "14082": "certain",
    "778": "ces",
    "985": "cess",
    "22541": "ceu",
    "6854": "cf",
    "16859": "cfg",
    "20006": "cgi",
    "305": "ch",
    "5815": "cha",
    "14153": "chain",
    "5083": "chan",
    "3167": "change",
    "15033": "changed",
    "25990": "changes",
    "12719": "channel",
    "13775": "chant",
    "27349": "chapter",
    "3090": "char",
    "18609": "character",
    "25389": "charg",
    "23367": "charge",
    "15425": "chart",
    "18366": "charts",
    "27148": "chas",
    "13496": "chat",
    "1173": "che",
    "3198": "check",
    "12348": "checkbox",
    "11238": "checked",
    "26902": "ched",
    "14969": "chem",
    "2724": "chen",
    "4630": "cher",
    "6609": "ches",
    "10530": "chester",
    "15554": "chestra",
    "29823": "chev",
    "22067": "chez",
    "4161": "chi",
    "20508": "chia",
    "5145": "child",
    "11991": "children",
    "24338": "chin",
    "19608": "chio",
    "29570": "chk",
    "16580": "chmark",
    "3049": "chn",
    "6387": "chni",
    "1859": "cho",
    "13884": "chod",
    "16957": "choice",
    "21803": "choose",
    "8420": "chor",
    "18688": "chos",
    "22495": "chr",
    "27433": "chrom",
    "18114": "chrome",
    "5904": "chron",
    "12168": "chs",
    "13664": "chsel",
    "2570": "cht",
    "10948": "chte",
    "12385": "chten",
    "8255": "chter",
    "10333": "chts",
    "29812": "chunk",
    "26806": "chus",
    "23766": "chy",
    "11555": "ch\u00e9",
    "455": "ci",
    "1512": "cia",
    "1455": "cial",
    "21101": "ciale",
    "5584": "cially",
    "28445": "cian",
    "3465": "cias",
    "15520": "cible",
    "25232": "cid",
    "21507": "cida",
    "8204": "cide",
    "13321": "cido",
    "5295": "cie",
    "15277": "cience",
    "27182": "ciendo",
    "15566": "cient",
    "27381": "ciente",
    "13241": "cier",
    "2478": "cies",
    "18869": "cii",
    "26575": "cija",
    "28383": "cije",
    "5553": "cil",
    "21873": "cile",
    "16381": "cin",
    "3277": "cing",
    "3934": "cio",
    "12401": "cion",
    "17593": "ciones",
    "20237": "cios",
    "8802": "cious",
    "7334": "cip",
    "24044": "cipe",
    "13326": "cipl",
    "19052": "cir",
    "6034": "circ",
    "16622": "circle",
    "3476": "cis",
    "20752": "cit",
    "28805": "cita",
    "2036": "cite",
    "10001": "citep",
    "17112": "citet",
    "14524": "cito",
    "12690": "city",
    "26906": "ciu",
    "16102": "cius",
    "2617": "ci\u00f3",
    "1290": "ci\u00f3n",
    "17624": "cji",
    "384": "ck",
    "10055": "cke",
    "8916": "cken",
    "4937": "cker",
    "3522": "cket",
    "9737": "ckets",
    "22736": "cki",
    "15415": "cknow",
    "27604": "cko",
    "4684": "cks",
    "27660": "cks\u00e5",
    "695": "cl",
    "16398": "cla",
    "15719": "clam",
    "16544": "clar",
    "1990": "class",
    "27542": "className",
    "13203": "classes",
    "2841": "cle",
    "14941": "clean",
    "8551": "clear",
    "12121": "cler",
    "7799": "cles",
    "11303": "cli",
    "28746": "clic",
    "3808": "click",
    "4645": "client",
    "19914": "cling",
    "24049": "clip",
    "8719": "clipse",
    "20495": "clk",
    "15126": "clo",
    "13058": "clock",
    "24812": "clojure",
    "16513": "clone",
    "11291": "clos",
    "5358": "close",
    "15603": "closed",
    "25071": "closure",
    "23642": "clou",
    "9274": "cloud",
    "28260": "cloudflare",
    "25932": "cls",
    "29066": "club",
    "5762": "clud",
    "2325": "clude",
    "13347": "cluded",
    "27722": "cludes",
    "22368": "cluding",
    "7009": "clus",
    "10085": "clusion",
    "19594": "cluster",
    "4912": "cm",
    "9006": "cmd",
    "21058": "cmp",
    "18038": "cn",
    "20047": "cnt",
    "1111": "co",
    "24956": "cock",
    "19284": "cod",
    "401": "code",
    "29659": "coded",
    "18137": "codes",
    "1054": "col",
    "15519": "cola",
    "10936": "cole",
    "25776": "coli",
    "22017": "coll",
    "27756": "collapse",
    "15914": "collect",
    "10855": "collection",
    "29027": "collections",
    "16575": "coln",
    "10965": "colo",
    "21553": "colog",
    "17308": "colon",
    "2780": "color",
    "27703": "colors",
    "22724": "cols",
    "4914": "column",
    "13099": "columns",
    "510": "com",
    "17743": "comb",
    "2763": "come",
    "26807": "comes",
    "11506": "coming",
    "2055": "comm",
    "6519": "command",
    "26381": "commands",
    "9342": "comment",
    "21032": "comments",
    "22529": "commerce",
    "15060": "commit",
    "9435": "common",
    "22382": "commons",
    "27820": "communic",
    "23834": "community",
    "23700": "como",
    "23045": "comot",
    "2388": "comp",
    "14518": "company",
    "18307": "compare",
    "12667": "compat",
    "23712": "compatible",
    "12198": "compile",
    "21789": "compiler",
    "5729": "comple",
    "8835": "complete",
    "19676": "complex",
    "9700": "component",
    "14036": "components",
    "22410": "compos",
    "19438": "compose",
    "12097": "comput",
    "26017": "compute",
    "535": "con",
    "17685": "concat",
    "19279": "concurrent",
    "1116": "cond",
    "18050": "conda",
    "15973": "conde",
    "16122": "condition",
    "5527": "conf",
    "2917": "config",
    "13305": "configuration",
    "17591": "configure",
    "26897": "confirm",
    "21015": "cong",
    "13082": "conn",
    "11958": "conne",
    "6915": "connect",
    "18045": "connected",
    "9965": "connection",
    "21441": "cono",
    "4599": "conom",
    "3200": "cons",
    "21123": "consin",
    "11058": "console",
    "3075": "const",
    "23362": "constant",
    "13646": "constraint",
    "11433": "construct",
    "27821": "constructor",
    "5529": "consult\u00e9",
    "25978": "consum",
    "1285": "cont",
    "12346": "contact",
    "7611": "container",
    "11516": "contains",
    "3051": "content",
    "10853": "contents",
    "4703": "context",
    "20621": "continu",
    "19878": "continue",
    "9996": "contr",
    "23008": "contra",
    "22052": "contre",
    "21570": "contrib",
    "6451": "control",
    "8299": "controller",
    "26255": "controls",
    "20580": "conv",
    "13441": "convert",
    "15108": "cook",
    "21509": "cookie",
    "29302": "coordinate",
    "9708": "cop",
    "4338": "cope",
    "8552": "copy",
    "2616": "cor",
    "16090": "cord",
    "3221": "core",
    "29725": "corr",
    "15728": "correct",
    "3944": "cos",
    "18253": "cost",
    "26235": "cot",
    "16589": "cou",
    "26680": "could",
    "2798": "count",
    "11808": "counter",
    "13509": "country",
    "15775": "course",
    "27845": "court",
    "13147": "cout",
    "24542": "cov",
    "11911": "cover",
    "20587": "cow",
    "18221": "cowo",
    "6814": "cp",
    "8223": "cpp",
    "21970": "cpu",
    "23141": "cpy",
    "7283": "cr",
    "26844": "cra",
    "17293": "craft",
    "1037": "cre",
    "3258": "create",
    "22662": "createElement",
    "11600": "created",
    "11944": "cred",
    "5576": "creen",
    "24546": "creens",
    "25029": "cref",
    "17053": "crement",
    "4838": "cret",
    "9084": "crete",
    "699": "cri",
    "29581": "cribe",
    "23059": "cribed",
    "924": "cript",
    "3395": "cription",
    "11709": "criptor",
    "9695": "crit",
    "20812": "criv",
    "24077": "cro",
    "19128": "cross",
    "2395": "cs",
    "26724": "csol",
    "4268": "css",
    "7638": "csv",
    "312": "ct",
    "2954": "cted",
    "20009": "ctic",
    "428": "ction",
    "1953": "ctions",
    "16948": "ctl",
    "2801": "ctor",
    "14359": "ctors",
    "9988": "ctr",
    "14600": "ctrine",
    "24220": "ctrl",
    "22999": "ctu",
    "13073": "ctx",
    "4979": "cu",
    "26719": "cuador",
    "18376": "cue",
    "1810": "cul",
    "16637": "cular",
    "21337": "cules",
    "17227": "culo",
    "5231": "cup",
    "2764": "cur",
    "4672": "curity",
    "18963": "curl",
    "21962": "curr",
    "26095": "currency",
    "3784": "current",
    "18127": "cursor",
    "8668": "cus",
    "13571": "cuss",
    "17348": "cussion",
    "6341": "custom",
    "15539": "customer",
    "7582": "cut",
    "11023": "cv",
    "18904": "cx",
    "1270": "cy",
    "8798": "cyc",
    "18614": "cych",
    "23090": "cycle",
    "25923": "cyk",
    "2067": "cz",
    "28849": "cza",
    "14286": "czas",
    "18562": "cze",
    "6902": "czy",
    "16100": "c\u00e9",
    "9271": "c\u00ed",
    "14410": "c\u00f3w",
    "29881": "d",
    "1388": "da",
    "25372": "dade",
    "24157": "dag",
    "21085": "dagger",
    "12293": "dal",
    "23276": "dale",
    "16846": "dam",
    "18386": "dan",
    "16702": "dar",
    "26031": "dark",
    "11353": "dart",
    "17370": "das",
    "14592": "dash",
    "4130": "dat",
    "1272": "data",
    "29503": "datab",
    "9803": "database",
    "14538": "datas",
    "24713": "dataset",
    "1256": "date",
    "9715": "dated",
    "27563": "datei",
    "10207": "daten",
    "15190": "dates",
    "12673": "datetime",
    "26747": "dating",
    "25516": "dawn",
    "3250": "day",
    "16700": "days",
    "2585": "db",
    "11140": "dbc",
    "21627": "dbo",
    "13891": "dc",
    "1289": "dd",
    "311": "de",
    "16529": "deb",
    "8382": "debug",
    "7099": "dec",
    "16565": "deck",
    "27787": "decl",
    "13808": "decode",
    "19557": "decor",
    "7176": "ded",
    "24535": "deep",
    "1753": "def",
    "4381": "default",
    "25476": "defin",
    "7922": "define",
    "12119": "defined",
    "16553": "definition",
    "12262": "defn",
    "12163": "deg",
    "25950": "dek",
    "6144": "del",
    "18829": "delay",
    "21234": "delegate",
    "8143": "delete",
    "4181": "delta",
    "2310": "dem",
    "24552": "demic",
    "17482": "demo",
    "14086": "dem\u00e1s",
    "1145": "den",
    "21518": "dens",
    "25873": "dent",
    "2716": "dep",
    "22594": "dependencies",
    "10836": "dependency",
    "18980": "dependent",
    "16519": "deploy",
    "19488": "depth",
    "672": "der",
    "13334": "dern",
    "20405": "derr",
    "8623": "ders",
    "2783": "des",
    "14273": "desc",
    "8216": "description",
    "13892": "design",
    "20858": "desktop",
    "19521": "dess",
    "7854": "dest",
    "23848": "destination",
    "20524": "destroy",
    "4801": "det",
    "16432": "detail",
    "14144": "details",
    "14659": "deutsch",
    "3359": "dev",
    "4888": "develop",
    "6734": "developer",
    "17426": "developers",
    "25431": "development",
    "10141": "device",
    "1390": "dex",
    "2176": "df",
    "25986": "dflare",
    "10779": "dfrac",
    "29069": "dfs",
    "20726": "dg",
    "12744": "dh",
    "6051": "di",
    "15321": "dia",
    "15901": "dialog",
    "27774": "dic",
    "8977": "dict",
    "29467": "diction",
    "27126": "dictionary",
    "18361": "did",
    "16217": "die",
    "26293": "dienst",
    "12765": "diff",
    "7501": "dig",
    "26204": "digit",
    "6229": "dim",
    "24702": "dimen",
    "12531": "dimensional",
    "24581": "din",
    "8497": "ding",
    "3972": "dir",
    "20146": "dire",
    "11851": "direct",
    "20845": "direction",
    "12322": "directory",
    "25721": "dirname",
    "2218": "dis",
    "20472": "disable",
    "18279": "disabled",
    "18383": "disambiguation",
    "26404": "discussion",
    "20960": "disk",
    "13369": "dispatch",
    "4990": "display",
    "15618": "displaystyle",
    "5721": "dist",
    "19244": "distance",
    "27691": "distribution",
    "27423": "dit",
    "4563": "div",
    "19776": "dj",
    "14095": "django",
    "8181": "dk",
    "11671": "dl",
    "12396": "dll",
    "18933": "dm",
    "5200": "dn",
    "1867": "do",
    "28525": "doFilter",
    "11152": "dob",
    "1514": "doc",
    "14695": "docker",
    "2640": "docs",
    "3225": "document",
    "12663": "documentation",
    "18329": "documentclass",
    "13221": "does",
    "26169": "dog",
    "3129": "dom",
    "7247": "domain",
    "24130": "domin",
    "9176": "don",
    "15091": "done",
    "27248": "donn\u00e9es",
    "17433": "door",
    "22571": "dor",
    "16360": "dorf",
    "22258": "dost\u0119p",
    "6333": "dot",
    "21328": "dotnet",
    "7778": "dots",
    "8896": "double",
    "3204": "down",
    "10382": "download",
    "6099": "dp",
    "7707": "dr",
    "19811": "dra",
    "20515": "drag",
    "4012": "draw",
    "13131": "drawable",
    "24477": "dri",
    "21594": "drive",
    "9465": "driver",
    "26419": "dro",
    "8865": "drop",
    "19305": "dropdown",
    "26179": "dru",
    "6289": "ds",
    "22992": "dst",
    "6008": "dt",
    "700": "du",
    "29392": "ducation",
    "2199": "duct",
    "29123": "due",
    "28955": "duino",
    "15070": "dump",
    "20908": "dup",
    "19708": "duration",
    "28012": "dw",
    "8235": "dx",
    "4518": "dy",
    "16626": "dynamic",
    "5601": "dz",
    "25328": "dzia\u0142",
    "18355": "dzie",
    "29872": "e",
    "11248": "ea",
    "4204": "each",
    "1479": "ead",
    "799": "ear",
    "21711": "earance",
    "2842": "earch",
    "21128": "eared",
    "15451": "ears",
    "23027": "east",
    "14531": "eau",
    "774": "eb",
    "27885": "ebb",
    "5154": "eben",
    "22480": "ebol",
    "19273": "ebook",
    "3205": "ebru",
    "687": "ec",
    "13273": "eca",
    "5658": "ecause",
    "5309": "ech",
    "8057": "echo",
    "13660": "eclipse",
    "522": "ect",
    "26458": "ected",
    "9739": "ection",
    "3019": "ector",
    "11142": "ectors",
    "17437": "ecycle",
    "27750": "ecz",
    "287": "ed",
    "8710": "eda",
    "20483": "edad",
    "2742": "ede",
    "19226": "eded",
    "6424": "eden",
    "2447": "eder",
    "12649": "ederb",
    "12731": "ederb\u00f6rd",
    "11696": "edes",
    "13032": "edeut",
    "12864": "edge",
    "15844": "edi",
    "1381": "edia",
    "7486": "edic",
    "21219": "eding",
    "21207": "edish",
    "5628": "edit",
    "15204": "editor",
    "23244": "edly",
    "23162": "edo",
    "11607": "edom",
    "23286": "edor",
    "5779": "eds",
    "6085": "edu",
    "11272": "edule",
    "14989": "eduled",
    "14952": "eduler",
    "7584": "edy",
    "3905": "ee",
    "12613": "eed",
    "27294": "een",
    "10287": "eerd",
    "12712": "ees",
    "1389": "ef",
    "25790": "efe",
    "12352": "eff",
    "15987": "effect",
    "8462": "efficient",
    "5598": "efined",
    "9740": "eft",
    "387": "eg",
    "2442": "ega",
    "26103": "ege",
    "15398": "egeben",
    "3442": "egen",
    "28137": "eggi",
    "460": "egin",
    "26567": "egn",
    "2412": "ego",
    "21024": "egos",
    "27652": "egov",
    "4872": "egr",
    "18128": "eground",
    "15881": "egr\u00fcnd",
    "24024": "egu",
    "28345": "egung",
    "11125": "egy",
    "23767": "egyzetek",
    "14797": "eh",
    "10096": "ei",
    "7577": "eign",
    "23270": "eil",
    "21084": "ein",
    "22430": "eing",
    "10337": "ej",
    "1416": "ek",
    "28102": "eken",
    "14541": "eks",
    "295": "el",
    "3100": "ela",
    "14045": "eland",
    "2495": "eld",
    "16024": "elde",
    "6146": "ele",
    "15436": "elect",
    "20461": "elem",
    "5029": "element",
    "17664": "elements",
    "4498": "elen",
    "13462": "elenium",
    "7367": "eler",
    "5830": "eles",
    "6393": "eless",
    "761": "elf",
    "5037": "eli",
    "18556": "elia",
    "27185": "elian",
    "23681": "elif",
    "22342": "elihood",
    "3875": "elij",
    "6918": "elijk",
    "6945": "elijke",
    "24446": "elin",
    "5570": "eline",
    "24210": "elines",
    "14067": "eling",
    "27657": "elivery",
    "514": "ell",
    "3547": "ella",
    "18663": "ellan",
    "1808": "elle",
    "14356": "elled",
    "4919": "ellen",
    "4539": "eller",
    "28257": "ellers",
    "4999": "elles",
    "25939": "ellett",
    "5481": "elli",
    "9347": "ellig",
    "28286": "elligence",
    "20585": "ellij",
    "7807": "elling",
    "20911": "ellite",
    "3156": "ello",
    "4743": "ellow",
    "10071": "ells",
    "10806": "ellschaft",
    "9288": "ellt",
    "14112": "elly",
    "16422": "elm",
    "3478": "eln",
    "7078": "elo",
    "12779": "elor",
    "1379": "els",
    "2870": "else",
    "24603": "elsen",
    "18133": "elsk",
    "2152": "elt",
    "2554": "elta",
    "14248": "elte",
    "16068": "eltemperaturen",
    "21883": "elter",
    "13841": "elve",
    "873": "ely",
    "331": "em",
    "2603": "ema",
    "5269": "email",
    "11422": "eman",
    "24767": "emann",
    "24212": "emark",
    "8609": "emas",
    "4579": "emat",
    "19217": "ematic",
    "1590": "emb",
    "17987": "embed",
    "1096": "ember",
    "19675": "emberg",
    "13415": "embers",
    "13365": "embl",
    "6967": "emble",
    "5789": "embly",
    "2006": "embre",
    "10187": "embro",
    "26557": "embros",
    "2004": "eme",
    "22580": "emed",
    "5452": "emein",
    "6861": "emeinde",
    "12398": "emen",
    "882": "ement",
    "9936": "emente",
    "13028": "emento",
    "4110": "ements",
    "25154": "emer",
    "13826": "emes",
    "21056": "emet",
    "22875": "emetery",
    "14208": "emi",
    "29747": "emia",
    "21976": "emit",
    "15810": "emo",
    "9857": "emon",
    "28927": "emor",
    "29629": "emos",
    "3451": "emp",
    "7278": "emph",
    "27667": "empio",
    "16305": "empl",
    "13141": "emplo",
    "26143": "employee",
    "9059": "empor",
    "25049": "empre",
    "3456": "empt",
    "6310": "empty",
    "26153": "emptyset",
    "1567": "ems",
    "24425": "emu",
    "6764": "emy",
    "264": "en",
    "2386": "ena",
    "12007": "enable",
    "17590": "enabled",
    "3871": "ename",
    "27153": "enant",
    "24893": "enario",
    "23509": "enas",
    "21845": "enberg",
    "22284": "enburg",
    "3977": "enc",
    "663": "ence",
    "9223": "enced",
    "22687": "encer",
    "2063": "ences",
    "13640": "enci",
    "5760": "encia",
    "6187": "encias",
    "15942": "encies",
    "16750": "encing",
    "12508": "encode",
    "26716": "encoded",
    "22331": "encoding",
    "3819": "ency",
    "355": "end",
    "8395": "enda",
    "21642": "endance",
    "5818": "endant",
    "6486": "endar",
    "3324": "ende",
    "2760": "ended",
    "2162": "enden",
    "28139": "endencia",
    "7158": "endencies",
    "5197": "endency",
    "3906": "endent",
    "1581": "ender",
    "21043": "enders",
    "18684": "endes",
    "16877": "endet",
    "26464": "endi",
    "15224": "endif",
    "2548": "ending",
    "18495": "endl",
    "2765": "endo",
    "12184": "endor",
    "21466": "endorf",
    "29734": "endpoint",
    "25404": "endra",
    "9030": "endre",
    "1975": "ends",
    "29670": "endum",
    "1600": "ene",
    "6419": "ened",
    "6537": "enen",
    "759": "ener",
    "27548": "energy",
    "25487": "enes",
    "18543": "eness",
    "10281": "enez",
    "23578": "enf",
    "996": "eng",
    "29669": "engelsk",
    "26955": "engen",
    "15109": "enger",
    "21709": "engers",
    "10599": "engine",
    "6180": "engl",
    "7131": "englisch",
    "22260": "engo",
    "23677": "engono",
    "1477": "ength",
    "19636": "engu",
    "11344": "eni",
    "15748": "enia",
    "16520": "enie",
    "19197": "enig",
    "8333": "ening",
    "16900": "enis",
    "23979": "enium",
    "23534": "enix",
    "5842": "enk",
    "16468": "enkins",
    "2108": "enn",
    "4584": "enne",
    "18723": "ennen",
    "9387": "ennes",
    "21539": "ennessee",
    "9517": "ennis",
    "8154": "eno",
    "575": "ens",
    "14535": "ensa",
    "3586": "ensch",
    "7008": "enschaft",
    "9217": "enschapp",
    "1947": "ense",
    "21144": "ensed",
    "24031": "ensemble",
    "14762": "ensen",
    "25594": "enser",
    "11259": "enses",
    "2673": "ension",
    "8180": "ensional",
    "5580": "ensions",
    "6322": "ensis",
    "6270": "ensive",
    "8185": "ensk",
    "24958": "enska",
    "8013": "enso",
    "25151": "enson",
    "26006": "ensoort",
    "6073": "ensor",
    "25059": "enst",
    "7469": "ensure",
    "8065": "ensuremath",
    "8841": "ensus",
    "296": "ent",
    "6381": "enta",
    "13703": "ental",
    "9233": "entation",
    "2016": "ente",
    "14927": "ented",
    "19889": "enten",
    "5893": "enter",
    "5326": "entes",
    "9097": "enth",
    "7268": "enti",
    "2556": "ential",
    "9247": "entially",
    "9409": "entials",
    "4173": "entic",
    "6002": "entication",
    "15440": "entin",
    "2509": "ention",
    "10041": "entity",
    "11280": "entlich",
    "24749": "entlicht",
    "2705": "ently",
    "9239": "ento",
    "14856": "entr",
    "14056": "entre",
    "26586": "entries",
    "8269": "entry",
    "1237": "ents",
    "6478": "enty",
    "4814": "enu",
    "18605": "enum",
    "15172": "enumerate",
    "6272": "env",
    "21813": "environ",
    "20944": "environment",
    "15274": "eny",
    "4666": "enz",
    "5723": "enza",
    "13233": "enze",
    "26686": "en\u00e7",
    "28558": "en\u00e7a",
    "10639": "en\u00ed",
    "22241": "eor",
    "1022": "ep",
    "28106": "epen",
    "16433": "ependant",
    "11356": "eper",
    "26819": "eping",
    "8961": "eps",
    "5463": "epsilon",
    "1837": "eq",
    "7589": "eqn",
    "9441": "eqnarray",
    "4915": "eqref",
    "1686": "equ",
    "11745": "equal",
    "13895": "equality",
    "10954": "equals",
    "2573": "equation",
    "9402": "equiv",
    "261": "er",
    "1572": "era",
    "15019": "erade",
    "13537": "eral",
    "18464": "eras",
    "23936": "erb",
    "6269": "erc",
    "24340": "erca",
    "2018": "erd",
    "11776": "erde",
    "18547": "erdings",
    "406": "ere",
    "25261": "erea",
    "14561": "ered",
    "23987": "eree",
    "14900": "erei",
    "20400": "erek",
    "14992": "erem",
    "4578": "eren",
    "11377": "erer",
    "11175": "eres",
    "15064": "erg",
    "13613": "eri",
    "8749": "eria",
    "10681": "erie",
    "6358": "eries",
    "3241": "ering",
    "5968": "erk",
    "837": "erm",
    "3504": "erman",
    "20648": "ermann",
    "10877": "erme",
    "23282": "ermeister",
    "20772": "ermo",
    "824": "ern",
    "10989": "erna",
    "17196": "ernal",
    "4510": "ername",
    "11795": "erne",
    "5851": "ernel",
    "15479": "erner",
    "7181": "erni",
    "24887": "erno",
    "1489": "ero",
    "9672": "eros",
    "3127": "err",
    "2704": "error",
    "12523": "errors",
    "414": "ers",
    "7092": "ersch",
    "24197": "erset",
    "27456": "ershell",
    "10475": "ership",
    "4455": "ersion",
    "1330": "erson",
    "15714": "erst",
    "814": "ert",
    "17951": "erta",
    "13946": "ertain",
    "24983": "erte",
    "19106": "erten",
    "28634": "erton",
    "6972": "erv",
    "25461": "erva",
    "20525": "ervation",
    "7143": "erve",
    "9841": "erved",
    "20098": "erves",
    "29530": "erving",
    "708": "ery",
    "267": "es",
    "8625": "esa",
    "26892": "esar",
    "9977": "esc",
    "21587": "escape",
    "1968": "esch",
    "968": "ese",
    "25310": "esehen",
    "11954": "esen",
    "1329": "esent",
    "21523": "eses",
    "12094": "esh",
    "10100": "esi",
    "28666": "esia",
    "18970": "esian",
    "6656": "esis",
    "8488": "esk",
    "20135": "eso",
    "14151": "esome",
    "19622": "esota",
    "9983": "esp",
    "27749": "esper",
    "404": "ess",
    "9297": "essa",
    "1448": "essage",
    "5340": "esse",
    "11517": "essed",
    "25583": "essel",
    "9957": "essen",
    "16136": "esser",
    "15322": "esses",
    "24782": "esseur",
    "1211": "ession",
    "15750": "essional",
    "10964": "essions",
    "6777": "esso",
    "6329": "essor",
    "27732": "ess\u00e9g",
    "342": "est",
    "4405": "esta",
    "7416": "estamp",
    "17578": "estanden",
    "22837": "estaur",
    "4196": "este",
    "2868": "ested",
    "23391": "estellt",
    "26826": "esten",
    "4156": "ester",
    "18006": "esterd",
    "18358": "esterday",
    "28910": "esters",
    "11521": "esti",
    "15931": "estic",
    "5286": "estig",
    "602": "estion",
    "2297": "estions",
    "6074": "estival",
    "4778": "esto",
    "21496": "eston",
    "27744": "estone",
    "22818": "estore",
    "16444": "estr",
    "8505": "estra",
    "15679": "estre",
    "16906": "estro",
    "9197": "ests",
    "14596": "esty",
    "16137": "esz",
    "23293": "eszt",
    "300": "et",
    "1187": "eta",
    "11881": "etailed",
    "26310": "etal",
    "7070": "etc",
    "3486": "etch",
    "2650": "ete",
    "6302": "eten",
    "26375": "eteor",
    "1308": "eter",
    "2699": "eters",
    "10778": "etes",
    "621": "eth",
    "23043": "ethe",
    "1979": "ether",
    "1408": "ething",
    "959": "ethod",
    "16577": "eti",
    "7492": "etic",
    "20850": "eties",
    "5410": "etime",
    "15133": "eting",
    "10896": "eto",
    "20666": "eton",
    "18184": "etr",
    "27280": "etra",
    "29551": "etro",
    "27184": "etry",
    "1691": "ets",
    "1803": "ett",
    "11300": "etta",
    "27840": "ettbe",
    "2353": "ette",
    "25864": "etten",
    "19036": "etter",
    "21158": "ettes",
    "9890": "etti",
    "7409": "ettings",
    "8563": "etto",
    "24120": "etu",
    "2647": "etwork",
    "3305": "ety",
    "6618": "etz",
    "7401": "etzt",
    "23078": "etzung",
    "12582": "et\u00e0",
    "12932": "eu",
    "5411": "eur",
    "11620": "eurs",
    "21477": "eus",
    "20909": "euw",
    "5750": "ev",
    "14513": "eval",
    "24219": "evalu",
    "11884": "even",
    "3696": "event",
    "13604": "events",
    "1310": "ever",
    "17991": "every",
    "809": "ew",
    "14545": "ewn\u0119",
    "14755": "ewn\u0119trz",
    "10540": "ewrite",
    "735": "ex",
    "4773": "example",
    "19057": "examples",
    "24633": "excel",
    "19499": "except",
    "11739": "exception",
    "6543": "exchange",
    "8097": "exe",
    "4258": "exec",
    "7978": "execute",
    "22256": "execution",
    "28997": "exist",
    "9933": "exists",
    "13322": "exit",
    "4548": "exp",
    "18837": "expand",
    "17854": "expect",
    "9684": "expected",
    "24516": "expl",
    "15843": "export",
    "26500": "exports",
    "13338": "expr",
    "17073": "express",
    "17471": "expression",
    "1062": "ext",
    "21843": "extend",
    "17588": "extension",
    "24299": "extensions",
    "23176": "external",
    "17833": "extra",
    "21111": "extract",
    "1032": "ey",
    "6096": "ez",
    "29888": "f",
    "5444": "fa",
    "16582": "fab",
    "17470": "fac",
    "2161": "face",
    "15445": "facebook",
    "8726": "faces",
    "23193": "fach",
    "17028": "fact",
    "19790": "factor",
    "14399": "factory",
    "21675": "fade",
    "11225": "fah",
    "18693": "fahr",
    "19243": "fahren",
    "29182": "fahrt",
    "14057": "fail",
    "26061": "failed",
    "18263": "fal",
    "11950": "fall",
    "12559": "falls",
    "4541": "false",
    "8302": "famil",
    "11922": "family",
    "12963": "fan",
    "11363": "fang",
    "15641": "far",
    "24658": "fare",
    "13629": "fas",
    "19874": "fass",
    "25536": "fasst",
    "11255": "fast",
    "22212": "father",
    "27502": "fatt",
    "27934": "fault",
    "14943": "fb",
    "13801": "fc",
    "11512": "fd",
    "1725": "fe",
    "14394": "feature",
    "22100": "features",
    "3647": "fect",
    "20309": "fection",
    "18798": "feed",
    "13287": "fel",
    "10612": "feld",
    "11350": "fen",
    "571": "fer",
    "1659": "ference",
    "10662": "ferences",
    "24023": "fern",
    "14373": "ferred",
    "3735": "ferrer",
    "25534": "fers",
    "19175": "fert",
    "29613": "fest",
    "9155": "fetch",
    "600": "ff",
    "17615": "ffe",
    "7161": "ffect",
    "15794": "ffen",
    "18725": "fff",
    "17156": "ffff",
    "2416": "ffic",
    "7880": "fficial",
    "15765": "fficiale",
    "4543": "fficient",
    "16434": "fg",
    "7241": "fi",
    "9639": "fic",
    "12619": "fica",
    "14894": "fico",
    "26395": "ficos",
    "6636": "fiddle",
    "2671": "field",
    "9621": "fields",
    "28491": "fif",
    "1003": "fig",
    "4532": "figure",
    "19631": "fik",
    "1777": "fil",
    "1445": "file",
    "28926": "fileName",
    "9507": "filename",
    "5325": "files",
    "5589": "fill",
    "26940": "filled",
    "9663": "film",
    "4572": "filter",
    "26705": "filters",
    "4951": "fin",
    "8394": "final",
    "2886": "find",
    "15418": "findViewById",
    "18925": "finite",
    "28034": "fir",
    "8696": "fire",
    "17445": "firebase",
    "4102": "first",
    "15161": "fish",
    "9202": "fit",
    "20818": "five",
    "5878": "fix",
    "20227": "fixed",
    "1579": "fl",
    "15581": "flag",
    "15764": "flags",
    "28041": "flash",
    "20620": "flat",
    "16041": "flex",
    "20157": "fli",
    "7411": "float",
    "14939": "floor",
    "1731": "flow",
    "25044": "flu",
    "24545": "flug",
    "23126": "flush",
    "26944": "fluss",
    "20126": "flutter",
    "17652": "fly",
    "24826": "fm",
    "23479": "fmt",
    "9144": "fn",
    "1181": "fo",
    "18037": "focus",
    "29013": "fog",
    "16132": "fois",
    "4542": "fol",
    "8771": "fold",
    "12083": "folder",
    "10132": "folg",
    "22997": "folge",
    "25648": "folio",
    "17976": "folk",
    "23031": "follow",
    "18753": "fon",
    "5657": "font",
    "28586": "fonts",
    "15193": "fony",
    "5431": "foo",
    "6661": "foot",
    "20012": "football",
    "21720": "footer",
    "20273": "footnote",
    "1454": "for",
    "14142": "forEach",
    "10956": "forall",
    "10118": "force",
    "4006": "ford",
    "1079": "fore",
    "13150": "foreach",
    "20324": "forge",
    "689": "form",
    "13390": "formance",
    "4830": "format",
    "5404": "formation",
    "15628": "formed",
    "24784": "former",
    "9514": "forms",
    "28067": "forsch",
    "3921": "fort",
    "6477": "fortun",
    "7524": "fortunately",
    "23343": "forum",
    "11333": "forward",
    "11940": "found",
    "17823": "four",
    "8944": "fox",
    "18091": "fp",
    "1341": "fr",
    "20910": "fra",
    "1154": "frac",
    "20777": "fragment",
    "7016": "frak",
    "22328": "fram",
    "2557": "frame",
    "19935": "frames",
    "4468": "framework",
    "16799": "fran",
    "14867": "frastr",
    "10745": "fre",
    "18447": "fred",
    "9021": "free",
    "27380": "frent",
    "7932": "fri",
    "18961": "frica",
    "17283": "fried",
    "18326": "friend",
    "22231": "frika",
    "24361": "frique",
    "3166": "from",
    "8862": "front",
    "5847": "fs",
    "615": "ft",
    "11927": "fte",
    "15535": "ften",
    "906": "fter",
    "23102": "ftp",
    "25221": "ftrag",
    "14093": "ftware",
    "3312": "fty",
    "21154": "fu",
    "1319": "ful",
    "8159": "full",
    "3730": "fully",
    "7692": "fun",
    "9891": "func",
    "2220": "function",
    "12171": "functions",
    "27159": "fund",
    "22613": "fur",
    "13065": "furt",
    "25051": "fw",
    "11093": "fx",
    "3666": "f\u00e9r",
    "9625": "f\u00e9rence",
    "8191": "f\u00e9rences",
    "9035": "f\u00e9r\u00e9s",
    "9255": "f\u00f6r",
    "27540": "f\u00f8",
    "8212": "f\u00fchr",
    "19738": "f\u00fchrt",
    "22269": "f\u00fchrung",
    "18214": "f\u00fcr",
    "29887": "g",
    "3249": "ga",
    "14454": "gabe",
    "28155": "gaben",
    "29531": "gable",
    "23014": "gal",
    "11802": "game",
    "4283": "gamma",
    "6249": "gan",
    "8029": "gang",
    "5397": "gar",
    "13323": "gart",
    "25496": "gas",
    "28818": "gat",
    "17062": "gate",
    "26300": "gb",
    "27354": "gc",
    "19644": "gcc",
    "479": "ge",
    "4310": "geb",
    "27617": "gebaut",
    "23475": "geben",
    "29492": "geber",
    "13063": "gebiet",
    "5869": "gebra",
    "28713": "gebracht",
    "28200": "gebras",
    "3192": "ged",
    "21831": "gef",
    "26210": "gef\u00fchrt",
    "25697": "geg",
    "27644": "gegeben",
    "22733": "geh",
    "7467": "gel",
    "28253": "gele",
    "17797": "gem",
    "19371": "geme",
    "20217": "gemein",
    "25474": "gemeinde",
    "11900": "gems",
    "1885": "gen",
    "10238": "gence",
    "14703": "gency",
    "11693": "gende",
    "26098": "gender",
    "4738": "gener",
    "17492": "general",
    "17158": "generate",
    "13525": "generated",
    "27959": "generator",
    "19206": "generic",
    "21096": "genommen",
    "17397": "gens",
    "5362": "gent",
    "24756": "geo",
    "19156": "geometry",
    "25339": "geon",
    "20557": "geordnet",
    "6279": "geq",
    "914": "ger",
    "20665": "gericht",
    "25382": "germeister",
    "5743": "gers",
    "3469": "gerufen",
    "2710": "ges",
    "20914": "gesamt",
    "7754": "gesch",
    "18602": "geschichte",
    "26175": "gesellschaft",
    "7118": "gest",
    "22436": "gestellt",
    "657": "get",
    "6014": "getElement",
    "7119": "getElementById",
    "22266": "getElementsBy",
    "20958": "getInstance",
    "28983": "getMessage",
    "19629": "getName",
    "13719": "getString",
    "18516": "getText",
    "23433": "getValue",
    "20078": "gets",
    "29264": "getting",
    "9396": "gew",
    "5082": "gex",
    "1505": "gg",
    "11832": "ggi",
    "26127": "ggreg",
    "12443": "gh",
    "25143": "ghan",
    "3146": "gi",
    "13723": "gia",
    "12053": "gie",
    "18660": "gif",
    "5359": "gin",
    "3460": "ging",
    "16237": "ginx",
    "5346": "gio",
    "19187": "gior",
    "22508": "giore",
    "5559": "git",
    "3292": "github",
    "25624": "giv",
    "3820": "gl",
    "29050": "glass",
    "6234": "gle",
    "19867": "gleich",
    "18548": "glise",
    "23705": "glob",
    "10945": "global",
    "16808": "gly",
    "21980": "gmail",
    "19422": "gment",
    "5138": "gn",
    "18713": "gnu",
    "1484": "go",
    "28111": "goal",
    "17083": "god",
    "17696": "going",
    "27157": "gom",
    "28517": "gon",
    "16773": "good",
    "3608": "google",
    "15947": "googleapis",
    "21208": "gor",
    "7085": "got",
    "27102": "goto",
    "13513": "gov",
    "23034": "gow",
    "629": "gr",
    "3874": "gra",
    "5105": "grad",
    "8228": "grade",
    "24970": "gradient",
    "13196": "gradle",
    "1393": "gram",
    "27857": "grand",
    "4262": "graph",
    "6420": "graphics",
    "23439": "gravity",
    "21012": "gray",
    "7979": "gre",
    "12692": "green",
    "7642": "greg",
    "20378": "gren",
    "22385": "grep",
    "7201": "gres",
    "16153": "gresql",
    "3663": "gress",
    "11476": "gression",
    "7720": "grid",
    "17170": "gro",
    "2057": "ground",
    "2972": "group",
    "9688": "groupId",
    "27789": "groupby",
    "13155": "groups",
    "7108": "gru",
    "12204": "grund",
    "25218": "gruppe",
    "14793": "gry",
    "20792": "gr\u00e9",
    "3174": "gs",
    "26711": "gs\u00e5",
    "4141": "gt",
    "2543": "gu",
    "17728": "guard",
    "13000": "gue",
    "26880": "guer",
    "26057": "guez",
    "23569": "gui",
    "13075": "guide",
    "28798": "gun",
    "1927": "gy",
    "28779": "gypt",
    "18828": "gz",
    "29882": "h",
    "2350": "ha",
    "7308": "hab",
    "21312": "had",
    "22075": "hadoop",
    "22023": "haft",
    "25771": "hagen",
    "23535": "hai",
    "4077": "hal",
    "11820": "halb",
    "24498": "half",
    "27090": "hall",
    "10647": "halt",
    "10176": "halten",
    "3391": "ham",
    "5403": "han",
    "29308": "hanced",
    "3179": "hand",
    "8411": "handle",
    "13789": "handler",
    "11895": "hang",
    "14443": "hape",
    "4252": "haps",
    "8222": "har",
    "6800": "hard",
    "25603": "hardt",
    "23024": "harm",
    "26243": "hart",
    "5349": "has",
    "8568": "hash",
    "2455": "hat",
    "26741": "hat\u00f3",
    "27976": "haupt",
    "6208": "haus",
    "15608": "hausen",
    "8708": "hav",
    "17532": "have",
    "16300": "havior",
    "26620": "hbar",
    "21368": "hbox",
    "16440": "hd",
    "354": "he",
    "2813": "head",
    "6672": "header",
    "13662": "headers",
    "23057": "heart",
    "15879": "heast",
    "25842": "heb",
    "3202": "heck",
    "17143": "hed",
    "10552": "heel",
    "4155": "heet",
    "9722": "heid",
    "3545": "height",
    "6391": "heim",
    "27400": "heimer",
    "12880": "hein",
    "6884": "heit",
    "21795": "heiten",
    "25714": "heits",
    "3952": "hel",
    "14181": "hell",
    "12199": "hello",
    "9421": "helm",
    "8477": "help",
    "20907": "helper",
    "27533": "hely",
    "8008": "hem",
    "3169": "hen",
    "26791": "hens",
    "2276": "her",
    "4150": "here",
    "27069": "herit",
    "21205": "herr",
    "13244": "hes",
    "9188": "het",
    "29557": "heten",
    "28661": "heure",
    "13636": "hew",
    "20970": "hex",
    "22923": "hez",
    "25446": "hh",
    "2918": "hi",
    "6335": "hib",
    "12575": "hibernate",
    "10892": "hidden",
    "11458": "hide",
    "9812": "high",
    "28970": "highlight",
    "29131": "hill",
    "26994": "him",
    "11222": "hin",
    "16887": "hind",
    "2790": "hing",
    "4034": "hip",
    "14587": "hips",
    "14812": "hire",
    "22880": "his",
    "13624": "histoire",
    "16211": "histor",
    "18434": "history",
    "27342": "hit",
    "4415": "hl",
    "29785": "hlen",
    "7760": "hline",
    "7184": "hm",
    "28822": "hmen",
    "3123": "hn",
    "26291": "hnen",
    "15565": "hner",
    "1251": "ho",
    "24008": "hod",
    "8782": "hof",
    "29327": "hoff",
    "5391": "hol",
    "8948": "hold",
    "7694": "holder",
    "23177": "holds",
    "29716": "hole",
    "13376": "holm",
    "9706": "hom",
    "5184": "home",
    "21708": "homme",
    "27305": "hon",
    "28522": "honneur",
    "6614": "hood",
    "20849": "hook",
    "2015": "hor",
    "15255": "hora",
    "22672": "horizontal",
    "25031": "horn",
    "15656": "hos",
    "3069": "host",
    "28988": "hostname",
    "23525": "hosts",
    "8711": "hot",
    "10774": "hou",
    "18721": "hour",
    "8697": "house",
    "23294": "hov",
    "13194": "hover",
    "3525": "how",
    "19362": "hoz",
    "28887": "hp",
    "29623": "hpp",
    "1092": "hr",
    "16720": "hre",
    "12653": "href",
    "13608": "hren",
    "26768": "hrer",
    "27426": "hrte",
    "9499": "hs",
    "14158": "hspace",
    "400": "ht",
    "21294": "htaccess",
    "13357": "htm",
    "1420": "html",
    "691": "htt",
    "1124": "http",
    "991": "https",
    "6905": "hu",
    "15669": "hui",
    "16063": "hum",
    "26029": "human",
    "18808": "hung",
    "14116": "hus",
    "26828": "hw",
    "5819": "hy",
    "24947": "hyper",
    "19990": "h\u00e1",
    "24910": "h\u00e1z",
    "24920": "h\u00e4",
    "17495": "h\u00e4lt",
    "17738": "h\u00e4ng",
    "19880": "h\u00e9",
    "13238": "h\u00f6",
    "6871": "h\u00f6r",
    "28452": "h\u00f6ren",
    "29875": "i",
    "423": "ia",
    "13544": "iac",
    "29018": "iada",
    "23395": "iae",
    "21071": "iah",
    "18754": "iai",
    "24061": "iak",
    "616": "ial",
    "4379": "iale",
    "24341": "iali",
    "6646": "ialize",
    "3658": "ialog",
    "2829": "iam",
    "18612": "iami",
    "10909": "iams",
    "713": "ian",
    "3857": "iana",
    "8837": "iance",
    "16677": "iane",
    "11727": "iani",
    "3328": "iano",
    "5834": "ians",
    "12361": "iante",
    "29653": "iao",
    "4447": "iar",
    "27388": "iare",
    "3173": "ias",
    "15736": "iast",
    "7163": "iat",
    "29347": "iate",
    "11685": "iation",
    "5979": "ia\u0142",
    "23398": "ia\u0142a",
    "747": "ib",
    "16912": "iba",
    "18673": "ibe",
    "24068": "iben",
    "12347": "iber",
    "13017": "ibil",
    "21997": "ibile",
    "4127": "ibility",
    "1821": "ible",
    "13876": "ibles",
    "2690": "ibli",
    "14981": "ibly",
    "29690": "ibm",
    "4626": "ibr",
    "6357": "ibrary",
    "26218": "ibration",
    "9268": "ibt",
    "19699": "ibus",
    "26378": "ib\u0151l",
    "293": "ic",
    "983": "ica",
    "29009": "icaci\u00f3n",
    "9384": "icago",
    "936": "ical",
    "28148": "icale",
    "1711": "ically",
    "18027": "icamente",
    "2185": "ican",
    "12679": "icana",
    "26655": "icane",
    "13231": "icano",
    "16708": "icans",
    "5070": "icas",
    "9593": "icate",
    "20485": "icator",
    "625": "ice",
    "7612": "iced",
    "1575": "ices",
    "436": "ich",
    "24227": "icha",
    "4070": "iche",
    "14487": "ichen",
    "12805": "icher",
    "18544": "ichi",
    "1428": "icht",
    "4458": "ichte",
    "12285": "ichten",
    "23210": "ichter",
    "15219": "ichtet",
    "17815": "ichts",
    "20836": "ichtung",
    "1654": "ici",
    "11477": "icia",
    "5611": "icial",
    "8910": "ician",
    "14722": "icians",
    "25123": "icile",
    "18336": "icina",
    "18499": "icing",
    "11088": "icio",
    "15353": "icion",
    "18394": "icional",
    "14674": "iciones",
    "19382": "icios",
    "14803": "icious",
    "12654": "icip",
    "24798": "icity",
    "14290": "ici\u00f3",
    "6396": "ici\u00f3n",
    "860": "ick",
    "17840": "icked",
    "21475": "icken",
    "6541": "icker",
    "8522": "icket",
    "26894": "icki",
    "7358": "icks",
    "18219": "icky",
    "28595": "ick\u00e1",
    "15510": "ick\u00e9",
    "21358": "ick\u00fd",
    "2512": "icle",
    "4027": "icles",
    "21715": "iclopedia",
    "1417": "ico",
    "12858": "icode",
    "5283": "icol",
    "28807": "icola",
    "23249": "icole",
    "4144": "icon",
    "27078": "icons",
    "4869": "icos",
    "2357": "icro",
    "2995": "icrosoft",
    "1199": "ics",
    "919": "ict",
    "18186": "icted",
    "2463": "iction",
    "4334": "ictionary",
    "4781": "icture",
    "10373": "ictures",
    "28223": "ictwo",
    "12906": "icul",
    "16311": "icular",
    "3953": "icult",
    "29381": "icum",
    "12473": "icus",
    "24408": "icut",
    "4245": "icy",
    "5175": "icz",
    "29791": "iczn",
    "19008": "ic\u0103",
    "333": "id",
    "1458": "ida",
    "2368": "idad",
    "5558": "idade",
    "7305": "idades",
    "3898": "idae",
    "23670": "idal",
    "29219": "idan",
    "8817": "idas",
    "22394": "iday",
    "2205": "idd",
    "4215": "idden",
    "2632": "iddle",
    "680": "ide",
    "11729": "idea",
    "2618": "ided",
    "10652": "idel",
    "3615": "iden",
    "5084": "idence",
    "26066": "idenote",
    "16647": "idense",
    "1693": "ident",
    "22008": "idente",
    "25378": "identifier",
    "22350": "identity",
    "16719": "idents",
    "3007": "ideo",
    "7958": "ideos",
    "1241": "ider",
    "11376": "iders",
    "2247": "ides",
    "5525": "idge",
    "3690": "idget",
    "8819": "idi",
    "29697": "idia",
    "4821": "iding",
    "1941": "ido",
    "23377": "idor",
    "4396": "idos",
    "4841": "ids",
    "1313": "idth",
    "13140": "idx",
    "24969": "id\u00e9",
    "347": "ie",
    "10789": "ieb",
    "27507": "ieben",
    "21199": "iec",
    "22149": "iech",
    "16776": "ieck",
    "1000": "ied",
    "28440": "iedenis",
    "4474": "ieder",
    "16426": "iedz",
    "2575": "ief",
    "5876": "ieg",
    "19369": "iegel",
    "9383": "iego",
    "27496": "iei",
    "8586": "iej",
    "11718": "iek",
    "709": "iel",
    "969": "ield",
    "9152": "iele",
    "28049": "iella",
    "11381": "ielle",
    "18029": "iellement",
    "28119": "iels",
    "9304": "ielt",
    "3768": "iem",
    "23745": "iemann",
    "5433": "iembre",
    "819": "ien",
    "5597": "ience",
    "24748": "iencia",
    "13396": "iency",
    "28114": "iende",
    "17008": "iendo",
    "3530": "iene",
    "12980": "ienen",
    "14986": "ienia",
    "23898": "ienie",
    "17810": "ienn",
    "7081": "ienne",
    "23510": "iennent",
    "27033": "iennes",
    "11689": "iens",
    "11271": "ienst",
    "993": "ient",
    "6759": "iente",
    "13833": "ientes",
    "5230": "iento",
    "14948": "ientos",
    "15054": "ientras",
    "10070": "ients",
    "21449": "ient\u00ed",
    "24880": "ienza",
    "631": "ier",
    "8311": "iera",
    "10883": "iere",
    "7884": "ieren",
    "13972": "ieri",
    "12643": "ierno",
    "15067": "iero",
    "10243": "ieron",
    "11617": "ierra",
    "6349": "ierre",
    "4285": "iers",
    "3722": "iert",
    "5423": "ierte",
    "12025": "ierten",
    "25449": "ierto",
    "7263": "ierung",
    "21212": "ierungs",
    "15952": "ierz",
    "583": "ies",
    "13077": "iesa",
    "21928": "iese",
    "19522": "iesen",
    "12239": "iest",
    "11250": "iesz",
    "2035": "iet",
    "16062": "ietnam",
    "21549": "iety",
    "9532": "ieu",
    "11542": "ieur",
    "8894": "ieurs",
    "13805": "ieux",
    "10384": "iev",
    "16837": "ieval",
    "2418": "ieve",
    "6402": "ieved",
    "17180": "ieves",
    "15387": "ieving",
    "646": "iew",
    "15580": "iewer",
    "26477": "iez",
    "21372": "ie\u00df",
    "16086": "ie\u017c",
    "361": "if",
    "26056": "ifa",
    "7060": "ifact",
    "1607": "ife",
    "22532": "ifecycle",
    "26651": "ifen",
    "9633": "ifer",
    "7004": "ifest",
    "2593": "iff",
    "11540": "iffe",
    "8349": "iffer",
    "17678": "ifference",
    "15622": "ifferent",
    "28324": "iffs",
    "6832": "ifi",
    "28677": "ifiable",
    "928": "ific",
    "15039": "ifica",
    "20718": "ificaci\u00f3n",
    "8021": "ificate",
    "2450": "ification",
    "8232": "ifications",
    "28833": "ifice",
    "28821": "ifie",
    "2164": "ified",
    "3709": "ifier",
    "14903": "ifiers",
    "11057": "ifies",
    "14759": "ifik",
    "22781": "ifique",
    "21722": "ifiz",
    "29792": "ifi\u00e9",
    "28963": "ifolia",
    "5560": "iform",
    "25430": "iformes",
    "6557": "iforn",
    "22000": "iframe",
    "10270": "ifs",
    "2027": "ift",
    "24377": "ifting",
    "17741": "ifts",
    "26868": "iftung",
    "6845": "iful",
    "1598": "ify",
    "9215": "ifying",
    "335": "ig",
    "4324": "iga",
    "11163": "igan",
    "25667": "igare",
    "2231": "ige",
    "2101": "igen",
    "25692": "igent",
    "4087": "iger",
    "13541": "iges",
    "22817": "igg",
    "3567": "igger",
    "1141": "igh",
    "25398": "ighed",
    "523": "ight",
    "28142": "ightarrow",
    "14643": "ighter",
    "18919": "ighth",
    "5861": "ights",
    "10091": "igi",
    "7238": "igin",
    "5635": "iginal",
    "9918": "igkeit",
    "29187": "igkeiten",
    "11224": "igli",
    "12964": "iglia",
    "2934": "igma",
    "647": "ign",
    "25072": "ignation",
    "4895": "igne",
    "12961": "igned",
    "21216": "igner",
    "27360": "ignes",
    "22849": "igneur",
    "10194": "ignment",
    "29582": "ignon",
    "17281": "ignore",
    "22771": "igny",
    "5973": "igo",
    "19336": "igos",
    "4481": "igr",
    "16783": "igration",
    "23379": "igs",
    "5523": "igt",
    "15085": "igte",
    "17542": "igten",
    "5526": "igu",
    "19970": "igua",
    "12137": "igue",
    "11841": "igung",
    "4861": "ih",
    "18019": "ihe",
    "2236": "ii",
    "25609": "iii",
    "823": "ij",
    "8044": "ija",
    "8791": "ijd",
    "7253": "ije",
    "13188": "iji",
    "13535": "ijk",
    "3263": "ijn",
    "19550": "ijo",
    "28793": "ijst",
    "26323": "iju",
    "638": "ik",
    "4106": "ika",
    "17409": "ikai",
    "23587": "ikal",
    "7941": "ikan",
    "9345": "ike",
    "14258": "ikel",
    "14004": "iken",
    "5603": "iker",
    "29379": "ikes",
    "28464": "ikh",
    "10058": "iki",
    "25882": "ikk",
    "10349": "iko",
    "10344": "ikon",
    "29852": "ikor",
    "29292": "iks",
    "10391": "ikt",
    "18282": "iku",
    "17342": "ikus",
    "9510": "ikz",
    "309": "il",
    "4233": "ila",
    "2327": "ilar",
    "8634": "ilation",
    "789": "ild",
    "25949": "ilda",
    "7154": "ilde",
    "2700": "ilder",
    "488": "ile",
    "2356": "iled",
    "17022": "ilen",
    "3955": "iler",
    "22058": "ilers",
    "5475": "iles",
    "15168": "iley",
    "2638": "ili",
    "11836": "ilia",
    "20548": "ilian",
    "15943": "ilib",
    "6504": "iling",
    "14876": "ilio",
    "23285": "ilis",
    "9770": "ilities",
    "1793": "ility",
    "453": "ill",
    "2911": "illa",
    "21338": "illas",
    "25208": "illaume",
    "1924": "ille",
    "24455": "illed",
    "5495": "iller",
    "19486": "illery",
    "7545": "illes",
    "7324": "illet",
    "26231": "illeurs",
    "12840": "illi",
    "23951": "illiant",
    "8873": "illing",
    "9093": "illo",
    "12794": "illon",
    "6090": "ills",
    "9403": "illy",
    "23589": "ill\u00e9",
    "7820": "ilo",
    "26140": "ilog",
    "3130": "ilon",
    "12405": "ilor",
    "2719": "ils",
    "16613": "ilst",
    "2782": "ilt",
    "24208": "ilty",
    "20671": "ilus",
    "2354": "ily",
    "326": "im",
    "2946": "ima",
    "3027": "image",
    "8346": "images",
    "3039": "imal",
    "25895": "iman",
    "20232": "imar",
    "25268": "imas",
    "15840": "imat",
    "6490": "imate",
    "15084": "imately",
    "7715": "imation",
    "19977": "imb",
    "603": "ime",
    "3393": "imedia",
    "19933": "imen",
    "2073": "iment",
    "22210": "imenti",
    "6174": "imento",
    "7862": "iments",
    "4193": "imer",
    "1355": "imes",
    "17528": "imet",
    "14772": "imeter",
    "2492": "img",
    "3320": "imgur",
    "10233": "imi",
    "9043": "imiento",
    "24038": "imientos",
    "8332": "imin",
    "17216": "imir",
    "13083": "imit",
    "19657": "imiter",
    "6727": "imm",
    "19400": "immer",
    "25217": "imming",
    "4200": "imo",
    "26052": "imoine",
    "20170": "imon",
    "24325": "imore",
    "18594": "imos",
    "6574": "imp",
    "26039": "imper",
    "13699": "impl",
    "21382": "implementation",
    "21304": "implies",
    "5215": "import",
    "17001": "important",
    "9893": "ims",
    "12539": "imum",
    "262": "in",
    "1099": "ina",
    "22919": "inaci\u00f3n",
    "17174": "inae",
    "21735": "inaire",
    "979": "inal",
    "16673": "inale",
    "19016": "inals",
    "16149": "inand",
    "18220": "inar",
    "3821": "inary",
    "10189": "inas",
    "16976": "inate",
    "3381": "ination",
    "23559": "inburgh",
    "3742": "inc",
    "1239": "ince",
    "22466": "inch",
    "2173": "inci",
    "25597": "incie",
    "26706": "incipal",
    "11707": "includ",
    "2856": "include",
    "7313": "includegraphics",
    "24572": "includes",
    "18271": "including",
    "25629": "increment",
    "5562": "inct",
    "16807": "inction",
    "513": "ind",
    "11054": "inda",
    "25201": "inde",
    "10060": "inden",
    "12860": "indent",
    "4995": "inder",
    "2248": "index",
    "19402": "indexOf",
    "22016": "indexPath",
    "14108": "indi",
    "4015": "inding",
    "15036": "indo",
    "2064": "indow",
    "2054": "indows",
    "19844": "indre",
    "12772": "inds",
    "19910": "indu",
    "20041": "indust",
    "457": "ine",
    "16736": "inea",
    "1312": "ined",
    "27868": "inek",
    "7026": "inen",
    "8946": "inent",
    "25270": "inental",
    "4983": "iner",
    "1475": "ines",
    "8233": "inese",
    "3335": "iness",
    "10157": "inet",
    "7192": "inf",
    "13453": "infl",
    "26512": "inflate",
    "3888": "info",
    "19678": "information",
    "3411": "infty",
    "292": "ing",
    "19144": "inge",
    "4289": "ingen",
    "5621": "inger",
    "19936": "ingers",
    "16094": "ingham",
    "11687": "ingly",
    "20191": "ingo",
    "886": "ings",
    "14723": "ingsomr\u00e5",
    "19680": "ingt",
    "4885": "ington",
    "6202": "ingu",
    "16479": "inha",
    "21307": "inho",
    "2172": "ini",
    "2827": "ining",
    "2344": "init",
    "18639": "initely",
    "11228": "initial",
    "24926": "initialize",
    "3475": "inition",
    "13593": "inity",
    "21920": "inject",
    "682": "ink",
    "27136": "inkel",
    "18159": "inking",
    "19363": "inks",
    "14764": "inline",
    "2559": "inn",
    "27464": "inned",
    "10190": "innen",
    "3993": "inner",
    "14742": "innerHTML",
    "16697": "inners",
    "1789": "ino",
    "12387": "inois",
    "8226": "inos",
    "2080": "input",
    "1144": "ins",
    "28219": "insen",
    "7851": "insert",
    "28594": "insic",
    "26102": "inside",
    "26803": "inson",
    "2611": "inst",
    "6252": "install",
    "25537": "installed",
    "8758": "instance",
    "524": "int",
    "15073": "inta",
    "6693": "inte",
    "16031": "integer",
    "14146": "integr",
    "27925": "integration",
    "28820": "intellij",
    "28481": "intendo",
    "14029": "intent",
    "1639": "inter",
    "13248": "interface",
    "14168": "intern",
    "7564": "internal",
    "27160": "interno",
    "19207": "interval",
    "22653": "inth",
    "8941": "into",
    "16929": "inton",
    "27075": "intrag",
    "23333": "intro",
    "9466": "ints",
    "29546": "inture",
    "8675": "inu",
    "14150": "inue",
    "13419": "inus",
    "11569": "inv",
    "20965": "invalid",
    "9772": "invoke",
    "14668": "inx",
    "4901": "iny",
    "17856": "in\u00e9",
    "601": "io",
    "2660": "iod",
    "14910": "iom",
    "291": "ion",
    "16017": "iona",
    "1848": "ional",
    "7565": "ionale",
    "28509": "ionales",
    "21868": "ionali",
    "25150": "ionario",
    "1421": "ione",
    "28487": "ioned",
    "17725": "ionen",
    "2884": "iones",
    "3688": "ioni",
    "26629": "ionic",
    "26058": "iono",
    "1080": "ions",
    "25295": "iony",
    "21260": "iop",
    "1611": "ior",
    "19258": "iore",
    "18930": "iors",
    "2363": "ios",
    "27864": "ioso",
    "23811": "iostream",
    "24414": "iot",
    "8975": "iour",
    "2738": "ious",
    "17365": "iously",
    "666": "ip",
    "22697": "ipage",
    "27494": "ipart",
    "15705": "ipe",
    "4652": "ipedia",
    "23828": "ipeline",
    "29488": "ipes",
    "22955": "ipo",
    "8377": "ipp",
    "16242": "ipped",
    "22425": "ippi",
    "17347": "ipping",
    "4512": "ips",
    "21278": "ipt",
    "8105": "iqu",
    "1387": "ique",
    "3783": "iques",
    "381": "ir",
    "3055": "ira",
    "27797": "irable",
    "19647": "iral",
    "20138": "iras",
    "13481": "irat",
    "12232": "iration",
    "2076": "irc",
    "26846": "irche",
    "12664": "ircraft",
    "1823": "ird",
    "533": "ire",
    "1088": "irect",
    "8684": "irection",
    "5554": "irectory",
    "2859": "ired",
    "19211": "irement",
    "2658": "ires",
    "12737": "iri",
    "24135": "irie",
    "8491": "iring",
    "14987": "irit",
    "6793": "irk",
    "27064": "irks",
    "5168": "irl",
    "9968": "irls",
    "3568": "irm",
    "28836": "irmingham",
    "3350": "iro",
    "17177": "iros",
    "12935": "irs",
    "24102": "irse",
    "765": "irst",
    "2728": "irt",
    "7515": "irth",
    "9786": "irtschaft",
    "11811": "irtual",
    "13163": "irty",
    "22693": "irus",
    "16129": "iry",
    "275": "is",
    "24326": "isEmpty",
    "8069": "isa",
    "21603": "isan",
    "24766": "isat",
    "4371": "isation",
    "10669": "isc",
    "17438": "isce",
    "783": "isch",
    "2010": "ische",
    "1679": "ischen",
    "3208": "ischer",
    "8403": "isches",
    "16084": "ischof",
    "895": "ise",
    "18802": "isecond",
    "21462": "iseconds",
    "3368": "ised",
    "7674": "isen",
    "7608": "iser",
    "4637": "ises",
    "4492": "isf",
    "728": "ish",
    "3276": "ished",
    "22154": "isher",
    "17006": "ishes",
    "29603": "ishi",
    "14424": "ishing",
    "18310": "ishment",
    "9835": "ishop",
    "10770": "isi",
    "24453": "isie",
    "5921": "ising",
    "2459": "ision",
    "12112": "isions",
    "15773": "isis",
    "11861": "isi\u00f3n",
    "3873": "isk",
    "8613": "iska",
    "19456": "iske",
    "28783": "isko",
    "28404": "iskt",
    "7497": "isl",
    "1608": "ism",
    "6386": "isme",
    "28303": "ismiss",
    "4411": "ismo",
    "12903": "isms",
    "11634": "ismus",
    "10718": "iso",
    "2285": "ison",
    "14125": "isons",
    "11936": "isp",
    "21075": "ispecies",
    "15229": "ispiel",
    "790": "iss",
    "16343": "issa",
    "9948": "issance",
    "19505": "issant",
    "5582": "isse",
    "11537": "issement",
    "13119": "issen",
    "8495": "issenschaft",
    "19047": "issent",
    "29415": "isser",
    "29284": "isses",
    "16290": "isset",
    "25490": "isseur",
    "2333": "ission",
    "6847": "issions",
    "17387": "isson",
    "15118": "issue",
    "12175": "issues",
    "391": "ist",
    "2079": "ista",
    "9777": "istan",
    "21558": "istance",
    "22137": "istant",
    "9395": "istas",
    "2488": "iste",
    "12652": "isted",
    "28474": "istema",
    "8244": "isten",
    "11416": "istence",
    "9696": "istent",
    "1531": "ister",
    "9230": "istes",
    "14194": "isti",
    "4695": "istic",
    "24504": "istica",
    "29000": "istiche",
    "6765": "istics",
    "27013": "istik",
    "15423": "isting",
    "26891": "istique",
    "20385": "istiques",
    "21007": "istische",
    "23426": "istischen",
    "5137": "isto",
    "6844": "istoire",
    "19639": "istol",
    "2118": "istor",
    "2668": "istory",
    "2132": "istr",
    "12496": "istra",
    "8306": "istration",
    "22715": "istre",
    "6801": "istrict",
    "19150": "istro",
    "6020": "istry",
    "12263": "istrz",
    "15917": "istrzost",
    "2879": "ists",
    "28311": "isu",
    "13344": "isy",
    "16399": "isz",
    "26409": "iszt",
    "11728": "is\u00e9",
    "15826": "is\u00e9e",
    "277": "it",
    "2028": "ita",
    "8270": "itable",
    "16639": "itage",
    "21835": "itaine",
    "9407": "itaire",
    "2410": "ital",
    "8929": "itan",
    "15776": "itants",
    "3673": "itar",
    "25952": "itare",
    "16628": "itas",
    "7366": "itat",
    "10388": "itate",
    "26513": "itatea",
    "22731": "itated",
    "7018": "itation",
    "24182": "itations",
    "23378": "itative",
    "28039": "itats",
    "2335": "itch",
    "23213": "itchen",
    "568": "ite",
    "4496": "itect",
    "14819": "itecture",
    "1573": "ited",
    "22634": "iteit",
    "7454": "itel",
    "667": "item",
    "17334": "itement",
    "1322": "itemize",
    "7076": "items",
    "3537": "iten",
    "1524": "iter",
    "17609": "iterator",
    "3246": "ites",
    "7369": "itet",
    "389": "ith",
    "2121": "ither",
    "17258": "ithmet",
    "18542": "ithmetic",
    "2985": "ithub",
    "4812": "iti",
    "29552": "itie",
    "1907": "ities",
    "21998": "itime",
    "11407": "iting",
    "654": "ition",
    "3245": "itional",
    "17658": "itionally",
    "2187": "itions",
    "23448": "itis",
    "3321": "itive",
    "24858": "itivity",
    "26665": "iti\u00e9",
    "1740": "itle",
    "17707": "itled",
    "10137": "itmap",
    "2049": "ito",
    "2105": "itor",
    "23652": "itore",
    "18382": "itori",
    "20106": "itories",
    "17259": "itors",
    "5047": "itory",
    "12870": "itos",
    "1169": "its",
    "20641": "itsch",
    "986": "itt",
    "5388": "itte",
    "4430": "itted",
    "9309": "ittee",
    "8400": "ittel",
    "16097": "itten",
    "5171": "itter",
    "27958": "ittest",
    "5367": "itting",
    "1992": "ittle",
    "20435": "itto",
    "1981": "itu",
    "11267": "itud",
    "4279": "itude",
    "20816": "itudes",
    "14193": "itul",
    "10125": "itung",
    "17252": "iture",
    "12937": "itut",
    "12356": "itute",
    "5008": "itution",
    "21059": "ituto",
    "537": "ity",
    "2784": "itz",
    "24597": "itza",
    "22940": "itzen",
    "13510": "itzer",
    "27198": "itzerland",
    "3943": "it\u00e0",
    "17975": "it\u00e4",
    "7033": "it\u00e4t",
    "2131": "it\u00e9",
    "7719": "it\u00e9s",
    "17829": "it\u0103",
    "5871": "iu",
    "1974": "ium",
    "21425": "iums",
    "2482": "ius",
    "440": "iv",
    "4244": "iva",
    "2561": "ival",
    "27445": "ivalent",
    "11778": "ivamente",
    "20595": "ivan",
    "27432": "ivari",
    "19701": "ivas",
    "26615": "ivatal",
    "573": "ive",
    "16443": "iveau",
    "2347": "ived",
    "13255": "ivel",
    "3598": "ively",
    "19882": "ivement",
    "5428": "iven",
    "20193": "iveness",
    "27649": "ivent",
    "2147": "iver",
    "1536": "ivers",
    "12193": "iverse",
    "24974": "iversity",
    "3145": "ives",
    "8107": "ivi",
    "3640": "ivid",
    "23352": "ividual",
    "5341": "ivil",
    "4357": "iving",
    "2068": "ivity",
    "22409": "ivit\u00e0",
    "4243": "ivo",
    "12927": "ivos",
    "11002": "ivot",
    "9429": "iw",
    "25845": "iwers",
    "861": "ix",
    "19892": "ixa",
    "11925": "ixed",
    "15711": "ixel",
    "27332": "ixen",
    "28778": "ixon",
    "19881": "iy",
    "466": "iz",
    "6619": "iza",
    "13902": "izable",
    "15677": "izaci\u00f3n",
    "18954": "izada",
    "17566": "izado",
    "15356": "izar",
    "17909": "izard",
    "2133": "ization",
    "17063": "izations",
    "20945": "iza\u00e7\u00e3o",
    "675": "ize",
    "1891": "ized",
    "19642": "izen",
    "3950": "izer",
    "19427": "izers",
    "7093": "izes",
    "10077": "izi",
    "15357": "izia",
    "23111": "izin",
    "5281": "izing",
    "13118": "izio",
    "8447": "izione",
    "13583": "izioni",
    "11411": "izo",
    "18162": "izon",
    "6753": "izont",
    "7731": "izontal",
    "4981": "izz",
    "24990": "izza",
    "24558": "izzata",
    "19280": "izzato",
    "21146": "izzazione",
    "12044": "i\u00df",
    "15912": "i\u00e3o",
    "12556": "i\u00e7\u00e3o",
    "26638": "i\u00e7\u00f5es",
    "9397": "i\u00e8me",
    "5289": "i\u00e8re",
    "20564": "i\u00e8rement",
    "29038": "i\u00e8res",
    "5170": "i\u00e9n",
    "19425": "i\u00eb",
    "3556": "i\u00f3",
    "3175": "i\u00f3n",
    "19855": "i\u0105",
    "13643": "i\u0107",
    "8953": "i\u010d",
    "9497": "i\u0119",
    "27233": "i\u0142",
    "21365": "i\u0161",
    "29926": "j",
    "17038": "jQuery",
    "1764": "ja",
    "21452": "jack",
    "24939": "jahr",
    "24744": "jak",
    "12429": "jal",
    "18323": "jamin",
    "8931": "jan",
    "5364": "jango",
    "4758": "jar",
    "14196": "jas",
    "9494": "jav",
    "1645": "java",
    "7729": "javascript",
    "16509": "javase",
    "23357": "javax",
    "6487": "jax",
    "16761": "jb",
    "22788": "jboss",
    "26012": "jd",
    "15686": "jdbc",
    "24255": "jdk",
    "1324": "je",
    "622": "ject",
    "6929": "jection",
    "24247": "jections",
    "25674": "jective",
    "11370": "jed",
    "9761": "jekt",
    "29390": "jekte",
    "15298": "jel",
    "12701": "jem",
    "4142": "jen",
    "6846": "jer",
    "10246": "jes",
    "29618": "jest",
    "4026": "jet",
    "27499": "jets",
    "18889": "jev",
    "2397": "ji",
    "27272": "jih",
    "28789": "jin",
    "25467": "jk",
    "29606": "jl",
    "21231": "jm",
    "27983": "jna",
    "2212": "jo",
    "9057": "job",
    "7122": "join",
    "12090": "joint",
    "13022": "jon",
    "3418": "jor",
    "14736": "jos",
    "20551": "jou",
    "18997": "jourd",
    "14186": "jours",
    "16865": "jp",
    "26568": "jpeg",
    "6173": "jpg",
    "28695": "jq",
    "5880": "jquery",
    "1315": "js",
    "7822": "jsfiddle",
    "3126": "json",
    "21318": "jsp",
    "22779": "jt",
    "4900": "ju",
    "23427": "jub",
    "17675": "jud",
    "18491": "junit",
    "16465": "jure",
    "18597": "jus",
    "5143": "just",
    "16627": "j\u00e0",
    "28843": "j\u00e1k",
    "29012": "j\u00e1n",
    "24651": "j\u00e1t",
    "20460": "j\u00e4hr",
    "12282": "j\u00e4r",
    "27453": "j\u00edc\u00ed",
    "12382": "j\u00f6",
    "29858": "j\u00f6n",
    "24900": "j\u00f6r",
    "4739": "j\u0105",
    "23341": "j\u0105c",
    "10274": "j\u0119",
    "20707": "j\u0161\u00ed",
    "29895": "k",
    "1335": "ka",
    "13098": "kadem",
    "26564": "kaf",
    "28510": "kafka",
    "11311": "kal",
    "11052": "kan",
    "21474": "kap",
    "9876": "kappa",
    "5689": "kar",
    "8637": "kaz",
    "12752": "kazy",
    "16022": "ka\u0144",
    "21066": "kb",
    "8810": "kbd",
    "12192": "kc",
    "446": "ke",
    "17713": "ked",
    "23137": "kee",
    "17462": "keep",
    "23935": "keeper",
    "10455": "kehr",
    "6239": "keit",
    "14027": "keiten",
    "10265": "kel",
    "27800": "kele",
    "27279": "keley",
    "21885": "kem",
    "1717": "ken",
    "28878": "kende",
    "12360": "kens",
    "3946": "ker",
    "22178": "kern",
    "17460": "kernel",
    "10794": "kes",
    "7873": "ket",
    "1989": "key",
    "8149": "keys",
    "26766": "keyword",
    "9415": "kg",
    "15339": "kh",
    "1984": "ki",
    "19501": "kie",
    "27700": "kiej",
    "18153": "kiem",
    "22293": "kih",
    "16757": "kil",
    "21174": "kill",
    "20903": "kim",
    "9089": "kin",
    "14380": "kind",
    "9292": "king",
    "11335": "kins",
    "14166": "kir",
    "22132": "kirche",
    "7354": "kit",
    "6859": "kk",
    "6321": "kl",
    "16907": "kl\u00e4r",
    "8848": "km",
    "16942": "kmal",
    "3959": "kn",
    "28385": "know",
    "5203": "known",
    "2901": "ko",
    "10028": "kol",
    "7218": "kom",
    "21667": "kommen",
    "8077": "kon",
    "25139": "kop",
    "13123": "kor",
    "29619": "kord",
    "29165": "kotlin",
    "21147": "kou",
    "9756": "kov",
    "7000": "kow",
    "22967": "koz",
    "12748": "kr",
    "4109": "kre",
    "20870": "kreich",
    "12364": "kreis",
    "22751": "kret",
    "13464": "krie",
    "2039": "ks",
    "29107": "ksam",
    "1193": "kt",
    "8190": "kte",
    "9553": "kten",
    "27112": "kter",
    "7153": "ktet",
    "7066": "ktion",
    "23668": "ktionen",
    "21371": "ktiv",
    "6883": "ktop",
    "10407": "ktor",
    "12947": "ktr",
    "13688": "ktur",
    "18882": "kt\u00f3",
    "23441": "kt\u00f3ber",
    "2120": "ku",
    "23262": "kund",
    "27488": "kunft",
    "22947": "kup",
    "23843": "kur",
    "27049": "kv",
    "11022": "kw",
    "19290": "kwargs",
    "3459": "ky",
    "27817": "k\u00e1",
    "10427": "k\u00e9",
    "19321": "k\u00e9nt",
    "15396": "k\u00f3w",
    "12910": "k\u00f6",
    "25578": "k\u0105",
    "26115": "k\u0119",
    "29880": "l",
    "433": "la",
    "8205": "lab",
    "1643": "label",
    "21134": "labels",
    "4620": "lac",
    "1265": "lace",
    "9552": "lacement",
    "6048": "laces",
    "22617": "lach",
    "14791": "lacht",
    "2364": "lack",
    "4528": "lad",
    "23373": "lade",
    "3110": "lag",
    "6184": "lage",
    "11541": "lagen",
    "8083": "lah",
    "24942": "lahoma",
    "8342": "laim",
    "13190": "laimed",
    "7420": "lain",
    "11818": "lais",
    "27275": "lait",
    "18170": "lak",
    "5288": "lam",
    "2892": "lambda",
    "12598": "lament",
    "6468": "lan",
    "1049": "land",
    "25241": "landa",
    "28328": "lande",
    "28514": "lando",
    "5252": "lands",
    "25821": "lane",
    "3893": "lang",
    "6990": "langle",
    "11675": "language",
    "27493": "lant",
    "6984": "lap",
    "14128": "laps",
    "13938": "lapse",
    "23384": "lapsed",
    "4675": "lar",
    "23838": "laration",
    "29787": "laravel",
    "8663": "lare",
    "27489": "larg",
    "16961": "large",
    "3333": "las",
    "605": "lass",
    "14537": "lasse",
    "19146": "lassen",
    "4230": "last",
    "5066": "lat",
    "9632": "late",
    "12333": "latest",
    "25694": "latex",
    "18411": "lation",
    "25855": "lau",
    "14844": "lauf",
    "15343": "launch",
    "15273": "laus",
    "4112": "lav",
    "23087": "lava",
    "18398": "lave",
    "10653": "law",
    "21222": "lax",
    "8387": "lay",
    "13148": "layer",
    "29277": "layers",
    "2680": "layout",
    "21051": "laz",
    "27728": "lb",
    "26648": "lbl",
    "430": "ld",
    "25943": "lder",
    "7796": "ldots",
    "280": "le",
    "20774": "lea",
    "25369": "leading",
    "29500": "leaf",
    "14044": "lean",
    "25210": "leans",
    "1945": "lear",
    "19668": "learn",
    "21891": "learning",
    "1511": "lease",
    "4611": "leased",
    "17836": "leases",
    "19982": "leb",
    "25434": "leben",
    "28941": "lecht",
    "781": "lect",
    "1464": "lection",
    "5942": "lections",
    "839": "led",
    "5485": "ledge",
    "17179": "lee",
    "5436": "leep",
    "25874": "lef",
    "1563": "left",
    "1397": "leg",
    "12018": "legal",
    "6045": "legate",
    "4424": "lege",
    "14778": "legen",
    "26172": "legend",
    "27333": "legraph",
    "16260": "legt",
    "29838": "legte",
    "16301": "lei",
    "8200": "leich",
    "24503": "leid",
    "24434": "lein",
    "15627": "leitung",
    "23275": "lej",
    "28508": "lek",
    "2409": "lem",
    "18453": "lemagne",
    "944": "lement",
    "13846": "lemma",
    "2435": "len",
    "2848": "length",
    "3797": "leq",
    "23501": "leqslant",
    "1358": "ler",
    "25931": "lera",
    "9306": "lers",
    "793": "les",
    "23854": "lesh",
    "17516": "lesia",
    "2222": "less",
    "23769": "lessly",
    "1026": "let",
    "2810": "lete",
    "22742": "leted",
    "27106": "letin",
    "11285": "leton",
    "10376": "lets",
    "13650": "lett",
    "20200": "lette",
    "15670": "letter",
    "20519": "leur",
    "2608": "lev",
    "6591": "levant",
    "5563": "level",
    "26326": "leveland",
    "2506": "lex",
    "2330": "ley",
    "11867": "lez",
    "19920": "lg",
    "492": "li",
    "4456": "lia",
    "9745": "liament",
    "13036": "liance",
    "18849": "lias",
    "1982": "lib",
    "5258": "library",
    "10254": "libs",
    "506": "lic",
    "10123": "lica",
    "5926": "licate",
    "9169": "licated",
    "15815": "licates",
    "1414": "lication",
    "5795": "lications",
    "5897": "lice",
    "29399": "lices",
    "1470": "lich",
    "4545": "liche",
    "4057": "lichen",
    "9195": "licher",
    "20048": "liches",
    "23143": "lichkeit",
    "10881": "licht",
    "4019": "licit",
    "17024": "licity",
    "1406": "lick",
    "29176": "lict",
    "7459": "lide",
    "3197": "lie",
    "2957": "lied",
    "16820": "lieder",
    "1593": "lient",
    "4926": "lier",
    "27801": "liers",
    "3687": "lies",
    "20409": "liest",
    "8621": "lie\u00df",
    "19264": "life",
    "3473": "lig",
    "10381": "liga",
    "27084": "lige",
    "27846": "ligen",
    "4366": "light",
    "18053": "ligt",
    "7267": "lij",
    "18022": "lijk",
    "25868": "lijke",
    "5081": "lik",
    "22605": "lika",
    "4561": "like",
    "21280": "likely",
    "2576": "lim",
    "23442": "limat",
    "28046": "lime",
    "13400": "limit",
    "29044": "limited",
    "12514": "limits",
    "12552": "limp",
    "1915": "lin",
    "1220": "line",
    "10660": "linear",
    "21354": "lined",
    "9012": "lines",
    "16292": "linewidth",
    "1847": "ling",
    "19101": "lingen",
    "18964": "lings",
    "2324": "link",
    "4965": "links",
    "27854": "lint",
    "9389": "linux",
    "5991": "lio",
    "3466": "lip",
    "5843": "lipse",
    "28378": "liqu",
    "9854": "lique",
    "15406": "lire",
    "23443": "lis",
    "1674": "lish",
    "3726": "lished",
    "1761": "list",
    "19641": "lista",
    "20631": "listen",
    "25894": "listener",
    "21513": "lists",
    "19411": "lit",
    "20889": "liter",
    "19646": "lius",
    "17843": "liv",
    "9258": "live",
    "14381": "liver",
    "14042": "lj",
    "25489": "ljen",
    "645": "ll",
    "13520": "lla",
    "26335": "lla\u00e7os",
    "19091": "lle",
    "26020": "lles",
    "21457": "lm",
    "3083": "ln",
    "417": "lo",
    "1359": "load",
    "15638": "loaded",
    "12657": "loader",
    "13234": "loading",
    "18132": "loads",
    "3071": "loat",
    "2127": "lob",
    "3157": "lobal",
    "2029": "loc",
    "2997": "local",
    "23337": "locale",
    "7640": "localhost",
    "28809": "located",
    "5479": "location",
    "908": "lock",
    "29113": "locked",
    "1188": "log",
    "21707": "logger",
    "21027": "logging",
    "19227": "logic",
    "7507": "login",
    "14569": "logo",
    "20756": "logs",
    "12957": "lon",
    "5426": "long",
    "24225": "longrightarrow",
    "6914": "look",
    "23261": "looking",
    "20401": "lookup",
    "7888": "loop",
    "10102": "loor",
    "4757": "lop",
    "27238": "loped",
    "9547": "lopedia",
    "5095": "lor",
    "5409": "los",
    "2226": "lose",
    "6758": "loss",
    "18908": "lossen",
    "18767": "lost",
    "20421": "loster",
    "8276": "lot",
    "23581": "lou",
    "5590": "lov",
    "677": "low",
    "13609": "lower",
    "2376": "loy",
    "18966": "loyd",
    "10164": "loyee",
    "22812": "loyment",
    "22833": "lp",
    "29212": "lr",
    "3137": "ls",
    "20155": "lst",
    "1896": "lt",
    "26674": "ltal",
    "18591": "ltre",
    "6092": "lu",
    "29448": "lua",
    "29870": "lub",
    "8285": "lung",
    "25250": "lungen",
    "12160": "lus",
    "13596": "luss",
    "28463": "lv",
    "368": "ly",
    "5890": "lying",
    "4960": "lymp",
    "13493": "lyn",
    "27026": "lyph",
    "16239": "lywood",
    "27048": "l\u00e0",
    "22867": "l\u00e1",
    "15527": "l\u00e1n",
    "9231": "l\u00e4",
    "16442": "l\u00e4nd",
    "17605": "l\u00e4r",
    "23319": "l\u00e4u",
    "17210": "l\u00e8s",
    "12898": "l\u00e9",
    "4237": "l\u00e9s",
    "21042": "l\u00eas",
    "18528": "l\u00f3",
    "27575": "l\u00f6",
    "28835": "l\u0105",
    "29885": "m",
    "655": "ma",
    "8628": "mac",
    "23523": "machine",
    "29731": "macht",
    "25254": "macro",
    "19581": "mad",
    "26350": "made",
    "11082": "mag",
    "24402": "mai",
    "2549": "mail",
    "3396": "main",
    "21355": "major",
    "5675": "make",
    "26076": "makeText",
    "28107": "maker",
    "28990": "making",
    "5156": "mal",
    "19202": "male",
    "27631": "malloc",
    "14685": "mals",
    "1171": "man",
    "25096": "mana",
    "25240": "managed",
    "21895": "management",
    "12847": "manager",
    "13990": "mande",
    "20977": "mania",
    "29135": "manifest",
    "4403": "mann",
    "26306": "mannschaft",
    "21555": "mans",
    "11288": "manual",
    "22670": "manuel",
    "13011": "many",
    "1958": "map",
    "20698": "mapping",
    "10339": "maps",
    "17499": "mapsto",
    "3034": "mar",
    "9264": "margin",
    "24556": "marine",
    "3502": "mark",
    "22976": "marker",
    "28549": "market",
    "22848": "marks",
    "16325": "markt",
    "28402": "mart",
    "5219": "mary",
    "8247": "mas",
    "13168": "mask",
    "25379": "mass",
    "19535": "maste",
    "6207": "master",
    "2922": "mat",
    "4352": "match",
    "20317": "matches",
    "25046": "mate",
    "15388": "material",
    "755": "math",
    "1995": "mathbb",
    "2762": "mathbf",
    "1942": "mathcal",
    "22823": "mathchar",
    "7237": "mathfrak",
    "27018": "mathop",
    "3141": "mathrm",
    "13002": "mathscr",
    "9605": "mathsf",
    "20300": "matically",
    "5344": "matrix",
    "12419": "maven",
    "3317": "max",
    "27525": "maxim",
    "13029": "may",
    "26026": "maybe",
    "16986": "maz",
    "8337": "mb",
    "17701": "mbH",
    "8264": "mbox",
    "14047": "mc",
    "3487": "md",
    "1004": "me",
    "12676": "mean",
    "26658": "measure",
    "23636": "meck",
    "2168": "med",
    "4210": "medi",
    "9799": "media",
    "13847": "mediate",
    "27891": "medium",
    "17897": "mee",
    "11331": "meister",
    "28110": "meisterschaft",
    "12873": "mel",
    "6954": "mem",
    "14242": "member",
    "28109": "members",
    "14834": "memory",
    "1527": "men",
    "28136": "meno",
    "27352": "mense",
    "358": "ment",
    "2689": "mente",
    "1860": "ments",
    "6510": "menu",
    "1050": "mer",
    "15667": "merce",
    "14634": "merge",
    "28150": "merk",
    "13269": "mers",
    "4467": "mes",
    "12062": "mess",
    "4906": "message",
    "19158": "messages",
    "2527": "met",
    "7299": "meta",
    "19635": "metadata",
    "29391": "meter",
    "5696": "method",
    "23515": "methods",
    "16414": "metric",
    "27995": "metro",
    "28204": "metros",
    "21660": "mez",
    "2460": "mi",
    "13076": "mic",
    "4994": "microsoft",
    "6563": "mid",
    "17662": "middle",
    "19720": "midt",
    "26131": "mier",
    "26983": "migr",
    "23853": "mil",
    "26763": "mile",
    "19958": "mill",
    "1195": "min",
    "13257": "mina",
    "24021": "mind",
    "24669": "mine",
    "4056": "ming",
    "24203": "minipage",
    "15962": "minister",
    "12254": "minus",
    "11038": "mir",
    "26737": "mis",
    "9894": "miss",
    "27259": "missing",
    "6737": "mission",
    "2415": "mit",
    "18344": "mitt",
    "20664": "mittel",
    "28084": "mix",
    "11256": "mk",
    "828": "ml",
    "9191": "mlung",
    "4317": "mm",
    "23521": "mn",
    "4346": "mo",
    "16769": "mobile",
    "17640": "mock",
    "1545": "mod",
    "15601": "modal",
    "8513": "mode",
    "4299": "model",
    "9794": "models",
    "26625": "modifier",
    "5453": "module",
    "7576": "modules",
    "3712": "mon",
    "8315": "mond",
    "23264": "mongodb",
    "14132": "mont",
    "10874": "month",
    "12257": "mor",
    "5514": "more",
    "26122": "morrow",
    "29720": "mort",
    "7681": "mos",
    "3242": "most",
    "14817": "mot",
    "16476": "mount",
    "15769": "mouse",
    "21026": "mouth",
    "13529": "mov",
    "11631": "move",
    "27362": "movie",
    "9781": "moz",
    "13025": "mozilla",
    "1526": "mp",
    "20856": "mpeg",
    "28466": "mq",
    "1516": "ms",
    "8319": "msdn",
    "7645": "msg",
    "4378": "mt",
    "2589": "mu",
    "16109": "mul",
    "4713": "mult",
    "9910": "multi",
    "14155": "multicol",
    "14392": "multicolumn",
    "18056": "multip",
    "20787": "multiple",
    "28570": "multirow",
    "24579": "mun",
    "15282": "mund",
    "8366": "mus",
    "25360": "museum",
    "23596": "music",
    "21969": "must",
    "6149": "mut",
    "23975": "mutable",
    "29324": "mv",
    "12943": "mvc",
    "16838": "mx",
    "1357": "my",
    "5781": "mys",
    "19268": "mysq",
    "7938": "mysql",
    "23727": "mysqli",
    "12031": "m\u00e9",
    "18202": "m\u00eame",
    "29876": "n",
    "1056": "na",
    "7183": "nab",
    "8511": "nabla",
    "29683": "nach",
    "28486": "nad",
    "8723": "nah",
    "22143": "nahm",
    "18692": "nahme",
    "22734": "nahmen",
    "15616": "naio",
    "15421": "naire",
    "8546": "nak",
    "21040": "nake",
    "20809": "nal",
    "8588": "nam",
    "978": "name",
    "17514": "named",
    "7039": "names",
    "22377": "namespace",
    "13707": "nan",
    "21941": "nant",
    "8971": "nap",
    "14551": "napshot",
    "24156": "nar",
    "22911": "nas",
    "8924": "nat",
    "11487": "native",
    "27479": "nats",
    "25047": "natural",
    "6654": "nav",
    "21890": "navbar",
    "15466": "navigation",
    "9877": "nb",
    "14239": "nbsp",
    "17608": "nc",
    "299": "nd",
    "17720": "nde",
    "5740": "nder",
    "484": "ne",
    "14011": "nea",
    "28502": "near",
    "15107": "necess",
    "4793": "nect",
    "3559": "nection",
    "9571": "ned",
    "28633": "nederb\u00f6rd",
    "26180": "need",
    "10052": "neg",
    "22198": "negative",
    "10313": "nego",
    "9113": "neh",
    "25543": "nehm",
    "14026": "nehmen",
    "23450": "nehmer",
    "6197": "nej",
    "6750": "nek",
    "9139": "nel",
    "18437": "nell",
    "23497": "nelle",
    "15344": "nem",
    "17239": "nement",
    "4566": "nen",
    "11496": "neo",
    "10743": "neq",
    "1089": "ner",
    "12170": "nero",
    "8397": "ners",
    "4515": "nes",
    "2264": "ness",
    "17510": "nest",
    "27420": "nested",
    "1212": "net",
    "18977": "nete",
    "20764": "nett",
    "11618": "network",
    "29765": "neum",
    "16115": "neur",
    "17821": "neut",
    "1482": "new",
    "22978": "newcommand",
    "15753": "news",
    "13996": "nex",
    "4622": "next",
    "3801": "ney",
    "16617": "nez",
    "865": "ng",
    "23257": "nginx",
    "1240": "ni",
    "3915": "nia",
    "7823": "nic",
    "8902": "nica",
    "16533": "nice",
    "19254": "nick",
    "15024": "nico",
    "2786": "nie",
    "12532": "niej",
    "19868": "niejs",
    "11697": "nier",
    "22234": "nig",
    "11147": "night",
    "13428": "nih",
    "5585": "nik",
    "13518": "nika",
    "8834": "nil",
    "16135": "nim",
    "1076": "ning",
    "21965": "ningar",
    "13881": "ningen",
    "22705": "ninger",
    "11753": "nings",
    "17592": "nio",
    "6994": "nis",
    "18628": "nisse",
    "26129": "nit",
    "9898": "nitt",
    "29204": "nitz",
    "21399": "niu",
    "21613": "nius",
    "28784": "ni\u0119",
    "26398": "nja",
    "12938": "nl",
    "22882": "nm",
    "15755": "nn",
    "1217": "no",
    "10763": "noc",
    "3177": "node",
    "18010": "nodes",
    "3998": "nof",
    "4043": "nofollow",
    "19605": "nog",
    "17695": "noindent",
    "11522": "nom",
    "25155": "nome",
    "5464": "non",
    "9290": "none",
    "13621": "nonumber",
    "15459": "nor",
    "23148": "noreferrer",
    "12324": "norm",
    "8945": "normal",
    "17639": "nos",
    "6582": "nost",
    "13887": "nosti",
    "1333": "not",
    "16666": "notation",
    "6812": "note",
    "16953": "notes",
    "28450": "nothing",
    "24671": "notification",
    "25140": "notify",
    "29842": "notin",
    "22897": "nou",
    "13715": "nov",
    "3707": "now",
    "21369": "nown",
    "11997": "no\u015bci",
    "17917": "no\u015b\u0107",
    "9302": "np",
    "14963": "npm",
    "22230": "nr",
    "1983": "ns",
    "14912": "nsylvan",
    "593": "nt",
    "13712": "nten",
    "20800": "nth",
    "20233": "ntil",
    "3433": "nu",
    "4304": "null",
    "1949": "num",
    "4537": "number",
    "20326": "numbers",
    "8058": "numer",
    "14068": "numerable",
    "21574": "numeric",
    "23749": "numpy",
    "9442": "nung",
    "18839": "nungen",
    "21305": "nut",
    "23818": "nx",
    "1460": "ny",
    "5909": "nych",
    "9574": "nym",
    "13980": "n\u00e1",
    "5483": "n\u00e9",
    "24697": "n\u00e9e",
    "2213": "n\u00ed",
    "13251": "n\u00edch",
    "15346": "n\u00edho",
    "16695": "n\u00edk",
    "13057": "n\u00edm",
    "16484": "n\u00fd",
    "28216": "n\u00fdch",
    "12486": "n\u0105",
    "13256": "n\u0119",
    "5623": "n\u011b",
    "29877": "o",
    "19807": "oa",
    "23106": "oauth",
    "711": "ob",
    "15330": "oba",
    "22872": "obar",
    "20838": "obb",
    "16945": "obe",
    "29217": "oben",
    "4950": "ober",
    "15647": "obi",
    "14105": "obierno",
    "12213": "obil",
    "5249": "obile",
    "5415": "obj",
    "3318": "object",
    "12650": "objects",
    "23518": "obox",
    "7630": "obre",
    "26290": "obs",
    "26739": "observ",
    "18711": "oby",
    "542": "oc",
    "6400": "oca",
    "18642": "ocal",
    "10610": "ocation",
    "15693": "occ",
    "11953": "occer",
    "16770": "occup",
    "26601": "occupation",
    "25802": "oce",
    "2878": "och",
    "28225": "ochastic",
    "26093": "oci",
    "10183": "ocia",
    "26258": "ociaci\u00f3n",
    "25245": "ocity",
    "1698": "ock",
    "8658": "ocker",
    "9749": "ocket",
    "10119": "ockey",
    "6235": "oco",
    "22531": "ocoa",
    "8415": "ocr",
    "25804": "ocracy",
    "16909": "ocrat",
    "12332": "ocs",
    "20082": "oct",
    "4463": "ocument",
    "5421": "ocus",
    "22502": "ocy",
    "19393": "ocz",
    "397": "od",
    "8887": "oda",
    "10396": "odb",
    "22861": "odd",
    "356": "ode",
    "6797": "oded",
    "27224": "odel",
    "13183": "oden",
    "6119": "oder",
    "2631": "odes",
    "17979": "odge",
    "12143": "odi",
    "26942": "odia",
    "3689": "oding",
    "16057": "odio",
    "22452": "odn",
    "8144": "odo",
    "28480": "odon",
    "17606": "odor",
    "29221": "odore",
    "24463": "odos",
    "25475": "odot",
    "17324": "odox",
    "19653": "ods",
    "20192": "odu",
    "1486": "ody",
    "7297": "oe",
    "21942": "oem",
    "26852": "oemd",
    "974": "of",
    "2696": "off",
    "20205": "office",
    "22450": "offs",
    "10289": "offset",
    "468": "og",
    "14895": "oga",
    "21317": "oge",
    "6352": "ogen",
    "16603": "ogene",
    "23724": "ogeneous",
    "12966": "ogether",
    "9804": "oggle",
    "1882": "ogle",
    "27579": "ogli",
    "3811": "ogn",
    "25666": "ogne",
    "10482": "ogo",
    "23419": "ogonal",
    "2345": "ograf",
    "29153": "ografi",
    "5028": "ografia",
    "9052": "ografie",
    "9325": "ograf\u00eda",
    "13342": "ogram",
    "1946": "ograph",
    "12122": "ographic",
    "19711": "ographical",
    "4437": "ographie",
    "19913": "ographique",
    "5275": "ography",
    "12414": "ogr\u00e1",
    "23916": "ogr\u00e1fica",
    "12099": "ogs",
    "6933": "ogy",
    "1148": "oh",
    "14899": "ohen",
    "10330": "ohl",
    "6547": "ohn",
    "7768": "oi",
    "3398": "oid",
    "28230": "oin",
    "2461": "oint",
    "6390": "oir",
    "14119": "oire",
    "22297": "oires",
    "11505": "ois",
    "20252": "oit",
    "3848": "oj",
    "554": "ok",
    "17029": "oka",
    "14599": "okal",
    "18489": "okat",
    "6946": "oke",
    "12504": "oked",
    "4476": "oken",
    "17933": "oker",
    "23195": "okes",
    "21025": "oki",
    "17223": "oking",
    "15218": "oko",
    "18468": "okrat",
    "12117": "oks",
    "9154": "oku",
    "324": "ol",
    "2963": "ola",
    "26510": "olan",
    "10170": "olar",
    "13517": "olare",
    "16118": "olas",
    "23167": "olate",
    "22671": "olation",
    "1025": "old",
    "3194": "older",
    "3361": "olds",
    "1772": "ole",
    "4132": "olean",
    "18975": "olen",
    "6544": "oles",
    "4369": "olf",
    "22991": "olg",
    "5079": "oli",
    "18001": "olia",
    "17211": "olid",
    "22878": "olin",
    "26496": "oline",
    "18301": "olis",
    "27298": "olit",
    "28387": "olk",
    "3028": "oll",
    "26810": "ollar",
    "21982": "ollary",
    "2952": "ollow",
    "18368": "olly",
    "3543": "olo",
    "1189": "olog",
    "23780": "ologe",
    "10020": "ologia",
    "5996": "ological",
    "5458": "ologie",
    "11763": "ologies",
    "20015": "ologique",
    "26288": "ologische",
    "19915": "ologist",
    "13835": "ologne",
    "3002": "ology",
    "14046": "olog\u00eda",
    "22138": "olph",
    "3775": "ols",
    "14339": "olt",
    "26481": "olta",
    "20184": "oltre",
    "20424": "olu",
    "18333": "oly",
    "13567": "ol\u00f3g",
    "290": "om",
    "4125": "oma",
    "2480": "oman",
    "18902": "omas",
    "3424": "omb",
    "20934": "ombres",
    "608": "ome",
    "27067": "omed",
    "4787": "omega",
    "2770": "omen",
    "28342": "omena",
    "2932": "oment",
    "12392": "omer",
    "3297": "omet",
    "8328": "ometer",
    "9153": "omething",
    "14618": "ometimes",
    "14066": "ometric",
    "7843": "ometry",
    "21019": "omi",
    "7615": "omial",
    "25426": "omic",
    "5817": "omin",
    "28826": "oming",
    "26621": "omini",
    "3011": "omm",
    "9944": "ommen",
    "14229": "ommes",
    "7386": "ommun",
    "10730": "omo",
    "18192": "omon",
    "7886": "omorph",
    "16898": "omorphic",
    "14143": "omorphism",
    "21744": "omp",
    "12769": "omr\u00e5",
    "4835": "oms",
    "17047": "omsnitt",
    "16103": "omy",
    "19613": "om\u00e1ny",
    "265": "on",
    "17879": "onCreate",
    "2681": "ona",
    "7177": "onal",
    "27835": "onas",
    "12732": "onato",
    "20546": "onaut",
    "24746": "onc",
    "10646": "once",
    "17330": "onces",
    "898": "ond",
    "14287": "onda",
    "13469": "onde",
    "16043": "onden",
    "8417": "onder",
    "18241": "ondere",
    "18452": "onders",
    "19547": "ondissement",
    "18592": "ondo",
    "13788": "onds",
    "650": "one",
    "22367": "oned",
    "11064": "onel",
    "19131": "onen",
    "2873": "ones",
    "4992": "oney",
    "549": "ong",
    "7443": "ongo",
    "13591": "ongodb",
    "24733": "ongs",
    "5271": "oni",
    "6405": "onia",
    "25164": "onial",
    "25813": "onian",
    "8927": "onic",
    "26082": "onica",
    "9599": "onie",
    "28259": "oning",
    "14642": "onio",
    "23345": "onk",
    "14627": "online",
    "6194": "only",
    "3409": "onn",
    "11586": "onna",
    "7293": "onne",
    "16678": "onnen",
    "24729": "onnes",
    "25905": "onneur",
    "14201": "onn\u00e9es",
    "3231": "ono",
    "4917": "onom",
    "25751": "onomie",
    "21926": "onomy",
    "787": "ons",
    "17914": "onsieur",
    "16911": "onso",
    "609": "ont",
    "9568": "onte",
    "10268": "onto",
    "2592": "ony",
    "4735": "onym",
    "29266": "onyme",
    "12484": "onymes",
    "11428": "onymous",
    "3634": "oo",
    "2092": "ood",
    "2550": "ook",
    "1507": "ool",
    "8789": "ools",
    "29667": "oom",
    "6150": "oon",
    "26793": "oop",
    "16946": "oor",
    "3155": "oot",
    "6983": "ooth",
    "459": "op",
    "28193": "opacity",
    "2300": "ope",
    "28605": "oped",
    "3150": "open",
    "22156": "opens",
    "3372": "oper",
    "22984": "opera",
    "16453": "operation",
    "6891": "operator",
    "9158": "operatorname",
    "15818": "opf",
    "3021": "oph",
    "29148": "ophe",
    "13434": "opher",
    "1991": "ople",
    "17201": "oplus",
    "12861": "opo",
    "13242": "opol",
    "17834": "oport",
    "9354": "opp",
    "26555": "opro",
    "3554": "ops",
    "15368": "opsis",
    "3670": "opt",
    "19959": "opter",
    "23672": "optera",
    "20640": "optim",
    "3385": "option",
    "25253": "optional",
    "6768": "options",
    "25707": "opts",
    "26466": "opus",
    "2270": "opy",
    "272": "or",
    "2207": "ora",
    "11347": "oracle",
    "6022": "orage",
    "11251": "oral",
    "12418": "oration",
    "11831": "orb",
    "25350": "orch",
    "536": "ord",
    "24568": "orde",
    "10934": "orden",
    "2098": "order",
    "21693": "ordered",
    "20488": "orders",
    "4194": "ordin",
    "24310": "ordinary",
    "16065": "ordinate",
    "24266": "ordinates",
    "3278": "ording",
    "16599": "ordnet",
    "25432": "ordnung",
    "20584": "ordo",
    "14224": "ordon",
    "19809": "ordre",
    "4339": "ords",
    "487": "ore",
    "4395": "ored",
    "3798": "oreferrer",
    "13606": "oreign",
    "3668": "orem",
    "8085": "oren",
    "9386": "orer",
    "2361": "ores",
    "12116": "oret",
    "4877": "orf",
    "990": "org",
    "6388": "organ",
    "22481": "organisation",
    "3890": "orge",
    "18996": "orgen",
    "4170": "ori",
    "4108": "oria",
    "9020": "orial",
    "7661": "orie",
    "12236": "orient",
    "20659": "orientation",
    "3842": "ories",
    "12683": "orig",
    "12574": "origin",
    "13492": "original",
    "17234": "origine",
    "8253": "oring",
    "10893": "orio",
    "23308": "orious",
    "29367": "oris",
    "3751": "orith",
    "4540": "orithm",
    "12404": "orithms",
    "548": "ork",
    "1613": "orld",
    "555": "orm",
    "2759": "ormal",
    "1398": "orn",
    "24751": "ornal",
    "25252": "orney",
    "16378": "orno",
    "5801": "oro",
    "20657": "orous",
    "26423": "orp",
    "5676": "orph",
    "28611": "orphism",
    "25891": "orr",
    "22396": "orrow",
    "3818": "orry",
    "943": "ors",
    "15292": "orsz",
    "16348": "orsz\u00e1g",
    "441": "ort",
    "10069": "orte",
    "18054": "orted",
    "27993": "orten",
    "9555": "orter",
    "2072": "orth",
    "27374": "ortheast",
    "26342": "orton",
    "22803": "oru",
    "17220": "orum",
    "16566": "orus",
    "706": "ory",
    "359": "os",
    "3628": "osa",
    "28903": "osas",
    "14174": "osc",
    "23039": "osci",
    "852": "ose",
    "2662": "osed",
    "7749": "osen",
    "22969": "oser",
    "15806": "oses",
    "29438": "osex",
    "10578": "osh",
    "26434": "oshi",
    "8156": "osi",
    "14556": "osing",
    "19263": "osis",
    "4490": "osition",
    "17464": "oslav",
    "24022": "oslov",
    "9064": "oso",
    "17904": "osof",
    "7708": "osoph",
    "24485": "osos",
    "4705": "osp",
    "26265": "ospel",
    "25715": "osph",
    "8189": "ospital",
    "23245": "ospod",
    "2209": "oss",
    "20634": "ossa",
    "28054": "ossen",
    "520": "ost",
    "16233": "osta",
    "6442": "osta\u0142",
    "10935": "osten",
    "15664": "oster",
    "16098": "osti",
    "5548": "osto",
    "11253": "oston",
    "18123": "ostream",
    "20900": "ost\u0119p",
    "13165": "osz",
    "327": "ot",
    "4616": "ota",
    "7288": "otal",
    "866": "ote",
    "19011": "oteca",
    "5715": "oted",
    "16368": "oten",
    "17084": "oter",
    "4769": "otes",
    "720": "oth",
    "10323": "othe",
    "17663": "othek",
    "1228": "other",
    "6046": "othing",
    "20336": "othy",
    "6539": "oth\u00e8que",
    "15297": "oti",
    "13574": "otic",
    "9356": "otimes",
    "11427": "oting",
    "8194": "otion",
    "13961": "otlin",
    "3747": "oto",
    "15788": "otos",
    "25730": "otr",
    "28467": "otrop",
    "1862": "ots",
    "1501": "ott",
    "13536": "otta",
    "14360": "otte",
    "15048": "otted",
    "16853": "otti",
    "9693": "otto",
    "3570": "ottom",
    "18820": "oty",
    "283": "ou",
    "2074": "ouble",
    "29049": "ouc",
    "3222": "ouch",
    "2736": "oud",
    "20013": "ouest",
    "692": "oug",
    "820": "ough",
    "1774": "ought",
    "5059": "oul",
    "483": "ould",
    "1309": "oun",
    "21543": "ounce",
    "20979": "ounced",
    "618": "ound",
    "7261": "ounded",
    "12449": "ounding",
    "3885": "ounds",
    "792": "ount",
    "5336": "ounter",
    "9729": "ountry",
    "1132": "oup",
    "6648": "oupe",
    "4410": "oups",
    "473": "our",
    "1167": "ource",
    "2863": "ources",
    "14069": "ourd",
    "25664": "oure",
    "14076": "oured",
    "18041": "ourg",
    "15508": "ouri",
    "2905": "ourn",
    "4659": "ournal",
    "2470": "ours",
    "10242": "ourse",
    "29781": "ourses",
    "14316": "ourt",
    "681": "ous",
    "1709": "ouse",
    "26165": "oused",
    "21299": "ousel",
    "23676": "ouses",
    "17790": "ousin",
    "5794": "ously",
    "21167": "ouss",
    "18291": "oust",
    "449": "out",
    "2663": "oute",
    "5561": "outer",
    "2438": "outh",
    "4905": "output",
    "17718": "outs",
    "15907": "outube",
    "5128": "ouv",
    "6223": "ouve",
    "9095": "ouvel",
    "10796": "ouvelle",
    "23621": "ouvelles",
    "8885": "ouver",
    "13532": "ouvern",
    "27235": "ouverneur",
    "23048": "ouvert",
    "7100": "ouw",
    "26888": "ouwd",
    "21630": "ouwen",
    "13375": "oux",
    "586": "ov",
    "4273": "ova",
    "10611": "oval",
    "10471": "ovan",
    "23067": "ovat",
    "994": "ove",
    "8238": "oved",
    "9813": "oven",
    "957": "over",
    "2262": "overflow",
    "6875": "overline",
    "6170": "overn",
    "15752": "override",
    "22205": "overy",
    "6895": "ovi",
    "5672": "ovie",
    "21081": "oving",
    "25190": "ovis",
    "14843": "ovi\u0107",
    "6962": "ovo",
    "15890": "ovy",
    "7643": "ov\u00e1",
    "22604": "ov\u00e1n\u00ed",
    "13169": "ov\u00e9",
    "28921": "ov\u00fd",
    "27522": "ov\u00fdch",
    "27519": "ov\u011b",
    "340": "ow",
    "5604": "owa",
    "24136": "owan",
    "25880": "owana",
    "17537": "owane",
    "18928": "owania",
    "21752": "owanie",
    "25024": "owano",
    "11853": "owany",
    "28894": "owa\u0107",
    "7231": "owa\u0142",
    "24902": "owa\u0142a",
    "4657": "owe",
    "20937": "owed",
    "13363": "owego",
    "7937": "owej",
    "27531": "owel",
    "1680": "ower",
    "13447": "owi",
    "4238": "owie",
    "776": "own",
    "26689": "owned",
    "20348": "owner",
    "23760": "ownik",
    "9616": "owo",
    "1242": "ows",
    "11716": "owski",
    "8268": "owy",
    "10449": "owych",
    "15105": "owym",
    "20855": "ow\u0105",
    "2251": "ox",
    "12602": "oy",
    "2112": "oz",
    "8706": "ozz\u00e1",
    "9147": "ozz\u00e1f\u00e9r\u00e9s",
    "27311": "o\u0142",
    "29886": "p",
    "3274": "pa",
    "3535": "pace",
    "22459": "paces",
    "4058": "pack",
    "5113": "package",
    "8318": "packages",
    "8305": "pad",
    "12791": "padding",
    "13573": "pag",
    "3488": "page",
    "12292": "pages",
    "18784": "pair",
    "7830": "pal",
    "8357": "pan",
    "15112": "pandas",
    "15119": "panel",
    "19773": "paper",
    "862": "par",
    "22752": "para",
    "26956": "paragraph",
    "23482": "parallel",
    "3207": "param",
    "15501": "parameter",
    "16744": "parameters",
    "7529": "params",
    "17954": "parator",
    "3560": "parent",
    "20941": "parison",
    "6378": "park",
    "5510": "parse",
    "25716": "parseInt",
    "16680": "parser",
    "1595": "part",
    "3846": "partial",
    "16707": "partition",
    "8076": "partment",
    "20895": "parts",
    "22633": "party",
    "18182": "pas",
    "3364": "pass",
    "5630": "password",
    "16179": "paste",
    "5031": "pat",
    "5041": "patch",
    "2084": "path",
    "24772": "paths",
    "11037": "pattern",
    "10472": "pay",
    "23813": "payload",
    "27825": "payment",
    "24381": "pb",
    "6739": "pc",
    "27463": "pci\u00f3n",
    "15926": "pd",
    "5140": "pdf",
    "412": "pe",
    "11666": "peat",
    "3135": "pec",
    "25009": "pecially",
    "18458": "pecies",
    "1103": "pect",
    "6021": "pected",
    "27988": "pection",
    "12645": "pective",
    "9795": "ped",
    "13111": "pel",
    "2238": "pen",
    "21275": "penas",
    "14081": "pend",
    "22825": "pent",
    "25719": "people",
    "546": "per",
    "21194": "perate",
    "25376": "percent",
    "19826": "perform",
    "15362": "periment",
    "27910": "perimental",
    "19145": "period",
    "22032": "perl",
    "17858": "perm",
    "16074": "permission",
    "13651": "peror",
    "24598": "perp",
    "6774": "pers",
    "28249": "persistence",
    "10532": "person",
    "10700": "pert",
    "6009": "perties",
    "2800": "perty",
    "5547": "pes",
    "10963": "pet",
    "14001": "pez",
    "7810": "pf",
    "4061": "pg",
    "14918": "pgf",
    "561": "ph",
    "2026": "pha",
    "17416": "phabet",
    "17206": "phal",
    "16711": "phan",
    "27473": "phantom",
    "16130": "phas",
    "21646": "phase",
    "28362": "phe",
    "9789": "phen",
    "8096": "pher",
    "9085": "phere",
    "2876": "phi",
    "16271": "phia",
    "17607": "phon",
    "6710": "phone",
    "22214": "phony",
    "21596": "photo",
    "1961": "php",
    "24588": "phr",
    "11461": "phy",
    "14017": "phys",
    "25105": "physics",
    "1631": "pi",
    "16447": "pic",
    "23945": "pick",
    "13908": "picker",
    "12095": "picture",
    "5935": "pid",
    "12343": "pie",
    "6384": "piel",
    "13262": "pieler",
    "12687": "pin",
    "26215": "pine",
    "15702": "ping",
    "16168": "pio",
    "22432": "pios",
    "13096": "pip",
    "17760": "pipe",
    "3334": "pis",
    "12907": "pisode",
    "23600": "pit",
    "20571": "pk",
    "15865": "pkg",
    "572": "pl",
    "13974": "pla",
    "6689": "place",
    "27074": "placeholder",
    "24595": "plain",
    "9018": "plan",
    "22116": "plane",
    "24389": "plant",
    "2341": "plate",
    "9884": "plates",
    "12120": "platform",
    "16739": "platz",
    "1456": "play",
    "9106": "player",
    "12922": "plays",
    "552": "ple",
    "2037": "plement",
    "14607": "plementation",
    "9711": "plements",
    "20069": "pler",
    "2701": "ples",
    "10709": "plex",
    "10335": "pling",
    "2830": "plit",
    "8840": "plom",
    "14716": "plorer",
    "5317": "plot",
    "17357": "plotlib",
    "26762": "plots",
    "8582": "plugin",
    "12800": "plugins",
    "11242": "plus",
    "17632": "ply",
    "3358": "pm",
    "12571": "pmatrix",
    "28871": "pmod",
    "21257": "pn",
    "2732": "png",
    "1129": "po",
    "15334": "pod",
    "3149": "point",
    "17226": "pointer",
    "9748": "points",
    "17376": "pois",
    "3733": "pol",
    "15831": "pole",
    "22197": "policy",
    "20087": "polit",
    "22678": "poly",
    "29533": "pom",
    "1112": "pon",
    "2818": "pond",
    "27582": "ponder",
    "3296": "ponent",
    "9340": "ponents",
    "1713": "ponse",
    "29649": "pont",
    "10109": "pool",
    "7323": "pop",
    "15635": "poque",
    "1971": "por",
    "637": "port",
    "25089": "portal",
    "13732": "porte",
    "18505": "porter",
    "4011": "ports",
    "1066": "pos",
    "22842": "posa",
    "4220": "pose",
    "4752": "posed",
    "10590": "poses",
    "3283": "position",
    "7036": "pository",
    "28802": "poss",
    "27338": "possible",
    "2490": "post",
    "27363": "posta",
    "29272": "postgresql",
    "14080": "posts",
    "17765": "pot",
    "12248": "pow",
    "13519": "power",
    "407": "pp",
    "13410": "ppa",
    "4798": "ppe",
    "2986": "pped",
    "17344": "ppel",
    "7785": "ppen",
    "2496": "pper",
    "22437": "ppers",
    "7988": "ppet",
    "27421": "ppets",
    "19788": "ppi",
    "3262": "pping",
    "27775": "ppings",
    "29400": "pply",
    "9759": "ppo",
    "3016": "pport",
    "23717": "ppy",
    "558": "pr",
    "28436": "pragma",
    "1457": "pre",
    "17990": "prec",
    "11965": "pred",
    "27711": "predict",
    "13506": "prefix",
    "28506": "preis",
    "15287": "prep",
    "19125": "prepare",
    "4569": "pres",
    "13039": "presa",
    "6338": "present",
    "26081": "presentation",
    "2139": "press",
    "13120": "pressed",
    "2590": "pression",
    "19819": "pret",
    "16304": "prev",
    "18921": "prevent",
    "22489": "preventDefault",
    "25347": "preview",
    "24957": "previous",
    "9175": "price",
    "3193": "pril",
    "27600": "prilis",
    "9469": "prim",
    "16072": "primary",
    "10080": "prime",
    "2339": "pring",
    "2158": "print",
    "16654": "printStackTrace",
    "8124": "printf",
    "5248": "println",
    "7734": "prise",
    "19428": "prit",
    "22534": "priv",
    "9053": "private",
    "771": "pro",
    "22795": "prob",
    "17199": "problem",
    "15439": "proc",
    "5014": "process",
    "19170": "processing",
    "26482": "processor",
    "10633": "prod",
    "5498": "produ",
    "4704": "product",
    "24601": "production",
    "14456": "products",
    "23221": "prof",
    "10185": "profile",
    "29097": "prog",
    "8860": "program",
    "28426": "programming",
    "18035": "progress",
    "20865": "proj",
    "4836": "project",
    "16418": "projects",
    "14032": "prom",
    "8017": "proof",
    "7728": "prop",
    "11330": "properties",
    "6799": "property",
    "11030": "props",
    "14676": "prote",
    "24681": "protected",
    "17529": "proto",
    "20464": "protocol",
    "16309": "prototype",
    "16123": "prov",
    "18121": "provider",
    "23447": "prowad",
    "14701": "proxy",
    "29372": "pr\u00e4sident",
    "5435": "pr\u00e8s",
    "12974": "pr\u00e9s",
    "10991": "pr\u00fc",
    "22918": "pr\u00fcft",
    "21563": "pr\u00fcng",
    "567": "ps",
    "27358": "pse",
    "28401": "pshire",
    "6134": "psi",
    "3232": "psilon",
    "11869": "pson",
    "15663": "psum",
    "415": "pt",
    "28363": "pta",
    "3266": "ptember",
    "23000": "ptic",
    "683": "ption",
    "1980": "ptions",
    "24070": "pto",
    "12533": "pton",
    "16002": "ptop",
    "7414": "ptr",
    "16485": "pts",
    "2349": "pty",
    "3746": "pu",
    "5467": "pub",
    "3597": "public",
    "18739": "publique",
    "23679": "publish",
    "28959": "puesta",
    "25628": "puis",
    "26746": "pull",
    "19294": "punkt",
    "15503": "pur",
    "13364": "pus",
    "5910": "push",
    "649": "put",
    "14584": "putation",
    "8822": "pu\u00e9s",
    "1756": "px",
    "2272": "py",
    "4691": "python",
    "29939": "q",
    "25621": "qa",
    "26461": "qi",
    "1519": "ql",
    "24349": "qq",
    "12014": "qquad",
    "17915": "qt",
    "339": "qu",
    "21408": "qua",
    "3425": "quad",
    "15380": "qual",
    "29567": "quality",
    "12150": "quant",
    "22640": "quantity",
    "4718": "quare",
    "19252": "quarters",
    "802": "que",
    "13295": "quel",
    "19443": "quelle",
    "3910": "quence",
    "23860": "quency",
    "16011": "quent",
    "7808": "quer",
    "1972": "query",
    "18825": "querySelector",
    "1912": "ques",
    "1119": "quest",
    "22802": "questa",
    "12470": "question",
    "2619": "questions",
    "12621": "quet",
    "9990": "queue",
    "24661": "quez",
    "6578": "qui",
    "22455": "quia",
    "24561": "quick",
    "16026": "quier",
    "24150": "quin",
    "14254": "quip",
    "11435": "quipe",
    "1548": "quire",
[...]
